[PAD]
[UNK]
[CLS]
[SEP]
[MASK]
!
"
$
%
&
'
(
)
*
+
,
-
.
/
0
1
2
3
4
5
6
7
8
9
:
;
<
=
>
?
@
[
\
]
^
_
`
{
|
}
~
¡
¢
£
¤
¥
¦
§
¨
©
ª
«
¬
®
°
±
²
³
´
µ
¶
·
¹
º
»
¼
½
¾
¿
×
ß
æ
ð
÷
ø
þ
đ
ħ
ı
ł
ŋ
œ
ƒ
ɐ
ɑ
ɒ
ɔ
ɕ
ə
ɛ
ɡ
ɣ
ɨ
ɪ
ɫ
ɬ
ɯ
ɲ
ɴ
ɹ
ɾ
ʀ
ʁ
ʂ
ʃ
ʉ
ʊ
ʋ
ʌ
ʎ
ʐ
ʑ
ʒ
ʔ
ʰ
ʲ
ʳ
ʷ
ʸ
ʻ
ʼ
ʾ
ʿ
ˈ
ː
ˡ
ˢ
ˣ
ˤ
α
β
γ
δ
ε
ζ
η
θ
ι
κ
λ
μ
ν
ξ
ο
π
ρ
ς
σ
τ
υ
φ
χ
ψ
ω
а
б
в
г
д
е
ж
з
и
к
л
м
н
о
п
р
с
т
у
ф
х
ц
ч
ш
щ
ъ
ы
ь
э
ю
я
ђ
є
і
ј
љ
њ
ћ
ӏ
ա
բ
գ
դ
ե
թ
ի
լ
կ
հ
մ
յ
ն
ո
պ
ս
վ
տ
ր
ւ
ք
־
א
ב
ג
ד
ה
ו
ז
ח
ט
י
ך
כ
ל
ם
מ
ן
נ
ס
ע
ף
פ
ץ
צ
ק
ר
ש
ת
،
ء
ا
ب
ة
ت
ث
ج
ح
خ
د
ذ
ر
ز
س
ش
ص
ض
ط
ظ
ع
غ
ـ
ف
ق
ك
ل
م
ن
ه
و
ى
ي
ٹ
پ
چ
ک
گ
ں
ھ
ہ
ی
ے
अ
आ
उ
ए
क
ख
ग
च
ज
ट
ड
ण
त
थ
द
ध
न
प
ब
भ
म
य
र
ल
व
श
ष
स
ह
ा
ि
ी
ो
।
॥
ং
অ
আ
ই
উ
এ
ও
ক
খ
গ
চ
ছ
জ
ট
ড
ণ
ত
থ
দ
ধ
ন
প
ব
ভ
ম
য
র
ল
শ
ষ
স
হ
া
ি
ী
ে
க
ச
ட
த
ந
ன
ப
ம
ய
ர
ல
ள
வ
ா
ி
ு
ே
ை
ನ
ರ
ಾ
ක
ය
ර
ල
ව
ා
ก
ง
ต
ท
น
พ
ม
ย
ร
ล
ว
ส
อ
า
เ
་
།
ག
ང
ད
ན
པ
བ
མ
འ
ར
ལ
ས
မ
ა
ბ
გ
დ
ე
ვ
თ
ი
კ
ლ
მ
ნ
ო
რ
ს
ტ
უ
ᄀ
ᄂ
ᄃ
ᄅ
ᄆ
ᄇ
ᄉ
ᄊ
ᄋ
ᄌ
ᄎ
ᄏ
ᄐ
ᄑ
ᄒ
ᅡ
ᅢ
ᅥ
ᅦ
ᅧ
ᅩ
ᅪ
ᅭ
ᅮ
ᅯ
ᅲ
ᅳ
ᅴ
ᅵ
ᆨ
ᆫ
ᆯ
ᆷ
ᆸ
ᆼ
ᴬ
ᴮ
ᴰ
ᴵ
ᴺ
ᵀ
ᵃ
ᵇ
ᵈ
ᵉ
ᵍ
ᵏ
ᵐ
ᵒ
ᵖ
ᵗ
ᵘ
ᵢ
ᵣ
ᵤ
ᵥ
ᶜ
ᶠ
‐
‑
‒
–
—
―
‖
‘
’
‚
“
”
„
†
‡
•
…
‰
′
″
›
‿
⁄
⁰
ⁱ
⁴
⁵
⁶
⁷
⁸
⁹
⁺
⁻
ⁿ
₀
₁
₂
₃
₄
₅
₆
₇
₈
₉
₊
₍
₎
ₐ
ₑ
ₒ
ₓ
ₕ
ₖ
ₗ
ₘ
ₙ
ₚ
ₛ
ₜ
₤
₩
€
₱
₹
ℓ
№
ℝ
™
⅓
⅔
←
↑
→
↓
↔
↦
⇄
⇌
⇒
∂
∅
∆
∇
∈
−
∗
∘
√
∞
∧
∨
∩
∪
≈
≡
≤
≥
⊂
⊆
⊕
⊗
⋅
─
│
■
▪
●
★
☆
☉
♠
♣
♥
♦
♭
♯
⟨
⟩
ⱼ
⺩
⺼
⽥
、
。
〈
〉
《
》
「
」
『
』
〜
あ
い
う
え
お
か
き
く
け
こ
さ
し
す
せ
そ
た
ち
っ
つ
て
と
な
に
ぬ
ね
の
は
ひ
ふ
へ
ほ
ま
み
む
め
も
や
ゆ
よ
ら
り
る
れ
ろ
を
ん
ァ
ア
ィ
イ
ウ
ェ
エ
オ
カ
キ
ク
ケ
コ
サ
シ
ス
セ
タ
チ
ッ
ツ
テ
ト
ナ
ニ
ノ
ハ
ヒ
フ
ヘ
ホ
マ
ミ
ム
メ
モ
ャ
ュ
ョ
ラ
リ
ル
レ
ロ
ワ
ン
・
ー
一
三
上
下
不
世
中
主
久
之
也
事
二
五
井
京
人
亻
仁
介
代
仮
伊
会
佐
侍
保
信
健
元
光
八
公
内
出
分
前
劉
力
加
勝
北
区
十
千
南
博
原
口
古
史
司
合
吉
同
名
和
囗
四
国
國
土
地
坂
城
堂
場
士
夏
外
大
天
太
夫
奈
女
子
学
宀
宇
安
宗
定
宣
宮
家
宿
寺
將
小
尚
山
岡
島
崎
川
州
巿
帝
平
年
幸
广
弘
張
彳
後
御
德
心
忄
志
忠
愛
成
我
戦
戸
手
扌
政
文
新
方
日
明
星
春
昭
智
曲
書
月
有
朝
木
本
李
村
東
松
林
森
楊
樹
橋
歌
止
正
武
比
氏
民
水
氵
氷
永
江
沢
河
治
法
海
清
漢
瀬
火
版
犬
王
生
田
男
疒
発
白
的
皇
目
相
省
真
石
示
社
神
福
禾
秀
秋
空
立
章
竹
糹
美
義
耳
良
艹
花
英
華
葉
藤
行
街
西
見
訁
語
谷
貝
貴
車
軍
辶
道
郎
郡
部
都
里
野
金
鈴
镇
長
門
間
阝
阿
陳
陽
雄
青
面
風
食
香
馬
高
龍
龸
ﬁ
ﬂ
！
（
）
，
－
．
／
：
？
～
...
10
000
2010
2011
12
2012
2008
2009
2013
2007
2006
2014
15
20
18
2015
11
2016
30
2005
16
14
13
2017
25
2004
2000
17
##2
24
##1
2003
##3
2002
100
21
19
2001
##4
22
##6
##7
23
##8
##5
1999
28
26
27
##9
1998
##0
1997
1996
50
29
2018
1995
1994
1992
1993
31
40
1991
1990
1989
1988
1987
1986
1st
1985
1984
1980
500
1983
km²
1982
1979
1981
200
1972
1976
1978
1974
1975
1977
1970
1968
1973
1945
1971
2nd
45
60
1969
1967
35
65
1964
1966
1965
32
1960
1944
1963
1962
19th
1942
80
1961
3rd
1943
1956
1958
1959
1980s
1941
1940
1948
1957
1939
1946
1950
90
33
1970s
70
1955
20th
300
1952
00
1947
44
36
1954
1953
1949
34
1960s
1951
1990s
64
38
1938
37
1936
1918
400
75
4th
1937
42
1935
1920
39
48
1930
1919
1933
1914
1934
55
1917
41
1929
1928
1932
47
52
43
1931
49
1927
1922
46
1924
5th
1925
1950s
51
1912
1926
1921
978
1923
1915
1916
1910
18th
150
1913
54
1900
600
56
1911
53
1908
95
6th
59
800
58
57
1905
7th
08
1906
1907
250
17th
1909
99
85
09
1930s
1904
05
07
06
66
16th
1902
1901
1903
62
98
72
04
01
8th
12th
96
97
03
120
10th
1898
88
61
93
13th
76
67
1899
02
63
1890
91
92
11th
77
68
78
9th
81
15th
1895
1896
1897
700
69
74
°c
94
71
84
14th
73
82
1889
89
1893
1892
79
1894
86
1885
87
1891
83
1920s
1888
1000
1864
1865
1880
1887
1861
1862
1863
1886
1870
1884
1881
m²
1882
1883
1878
110
1860
1876
21st
1871
1879
1875
1867
1877
130
1872
1868
1874
3d
1873
1866
1940s
900
##°
1869
101
1850
1848
160
°f
1859
1857
##₂
180
1854
1855
1858
140
350
1856
125
105
1852
1851
2000s
##00
1840
1853
1849
1847
1846
102
360
1830
1845
104
750
1837
1844
103
1800
1841
1812
1838
1842
1839
1843
1836
106
1835
1832
##а
##и
450
1500
2019
220
107
115
1815
1834
##²
108
##10
170
1831
25th
1814
1833
1820
111
112
240
1825
##20
135
1828
109
1829
1824
##₃
##ı
1821
1810
230
190
##₁
128
3000
1826
1818
113
1813
1822
1827
1816
##50
1793
1801
114
1806
##12
1823
1817
1819
117
121
2020
1803
##40
##⁺
1880s
1809
175
210
116
50th
118
127
1798
1808
1811
122
1805
123
1804
1794
1807
550
119
30th
24th
1790
1795
124
1792
280
5000
1802
260
1890s
320
##½
1789
145
270
650
22nd
1799
1796
165
23rd
1776
126
132
1797
2d
##30
##о
##ه
155
330
m³
1775
1791
129
##ي
133
##11
£1
##α
131
144
1200
1600
1870s
26th
137
225
152
138
27th
1780
##18
134
##е
##ος
1783
185
##د
136
##ии
141
28th
1788
850
v8
1860s
##ن
80s
340
##16
1787
143
##15
##60
142
1777
##19
##ν
##ович
501
##0s
29th
205
1778
146
201
##ø
1900s
370
148
147
1850s
1784
151
40th
##17
1700
139
154
##32
153
156
167
1781
202
1758
##р
1782
100th
168
##14
##₄
380
31st
##₀
##13
##ر
310
290
90s
1785
460
256
480
195
149
a1
161
157
215
440
##я
1786
420
##21
1772
##ße
275
70s
1774
192
1779
182
158
1770
##25
łodz
235
162
163
##80
164
1660
375
##³
177
##48
49ers
212
1750
##ι
171
172
1763
##ان
208
203
176
169
181
166
##100
183
¹⁄₂
206
##ł
##24
159
##н
222
1760
##ᵢ
##ₙ
188
301
410
211
##ов
178
1840s
##ß
##22
365
209
173
##ة
187
##35
174
1300
430
##ς
221
186
520
204
325
184
##ław
224
640
1768
610
##70
207
##на
191
1800s
213
1773
214
194
##45
197
193
303
911
198
390
196
f1
4000
co₂
35th
540
216
231
179
950
217
60s
1830s
305
34th
189
265
32nd
219
255
1400
1769
232
1771
199
1a
218
1765
223
1762
##86
33rd
60th
##42
660
245
226
312
##90
470
##64
333
560
1761
42nd
1766
1755
36th
##46
##31
1764
227
1767
1640
264
##36
1759
295
1740
285
1745
£2
1650
##23
##´s
262
234
##34
##38
238
38th
302
737
1100
233
##م
##51
254
228
twenty20
##53
490
241
1756
246
##33
##28
242
a2
1648
##−
251
1754
1715
##47
1757
##евич
401
1689
39th
229
625
720
243
252
315
##27
##т
##44
281
##ła
313
37th
287
253
1730
425
m1
237
##sław
u2
##75
mp3
247
2a
##ː
510
1644
##ия
##39
530
311
1720
236
630
620
249
##41
##ل
239
580
##ь
322
##43
345
1753
##26
1710
3a
304
802
##к
680
316
405
321
1661
1642
1688
##55
##01
##♭
435
244
272
308
41st
1620
257
258
512
335
385
##37
1751
261
1748
1746
1747
307
248
##29
1680
306
45th
760
395
415
1749
278
1752
1690
##η
##ی
h₂o
404
288
570
286
##straße
1630
1707
309
1685
75th
271
2500
276
268
wrocław
266
590
259
980
1714
263
328
v6
1741
1727
273
747
323
267
283
m2
##в
1643
670
##ا
277
274
001
1743
525
1603
1725
##9th
2021
1641
1742
269
49th
279
##52
43rd
292
##باد
1610
1739
740
1744
412
999
1662
299
6000
##6th
51st
1701
1735
1645
stanisław
##65
##49
357
1550
1670
314
1625
282
355
##×
1b
vh1
44th
1724
4a
##ʻi
319
1649
1723
317
960
820
1722
##4th
1737
1702
##ου
£10
2010s
1728
880
284
52nd
70th
293
521
##56
1718
318
##54
1713
1621
289
20s
291
1675
296
1733
324
298
1672
1708
1734
##⁄₄
1666
1683
1635
##ια
406
1654
1638
297
##7th
356
411
417
1717
##85
331
1540
1732
1667
875
710
1665
##øy
1721
£100
##a1
c1
910
1704
48th
##raße
343
£5
##58
354
1629
##¹
338
1679
##−1
336
46th
00pm
730
1738
441
402
1609
690
1910s
840
1622
294
##59
451
1719
£3
326
1736
1086
1605
403
1716
1632
47th
475
##8th
1580
1659
##57
##200
1726
341
1703
1656
1655
1731
1729
1711
1712
327
351
1664
337
1634
1820s
1624
##ка
780
1692
57th
1628
1697
1016
050
1699
1604
##66
1611
1646
1626
1652
870
1570
352
407
1658
505
1709
339
##ан
1663
1618
1623
m3
770
55th
1651
56th
##3d
##ы
##ה
1695
##ης
1560
1612
c2
422
##ɛ
495
1653
1705
332
381
##500
930
344
421
##л
1682
b1
##400
555
334
329
54th
##!
##"
##$
##%
##&
##'
##(
##)
##*
##+
##,
##-
##.
##/
##:
##;
##<
##=
##>
##?
##@
##[
##\
##]
##^
##_
##`
##{
##|
##}
##~
##¡
##¢
##£
##¤
##¥
##¦
##§
##¨
##©
##ª
##«
##¬
##®
##±
##´
##µ
##¶
##·
##º
##»
##¼
##¾
##¿
##æ
##ð
##÷
##þ
##đ
##ħ
##ŋ
##œ
##ƒ
##ɐ
##ɑ
##ɒ
##ɔ
##ɕ
##ə
##ɡ
##ɣ
##ɨ
##ɪ
##ɫ
##ɬ
##ɯ
##ɲ
##ɴ
##ɹ
##ɾ
##ʀ
##ʁ
##ʂ
##ʃ
##ʉ
##ʊ
##ʋ
##ʌ
##ʎ
##ʐ
##ʑ
##ʒ
##ʔ
##ʰ
##ʲ
##ʳ
##ʷ
##ʸ
##ʻ
##ʼ
##ʾ
##ʿ
##ˈ
##ˡ
##ˢ
##ˣ
##ˤ
##β
##γ
##δ
##ε
##ζ
##θ
##κ
##λ
##μ
##ξ
##ο
##π
##ρ
##σ
##τ
##υ
##φ
##χ
##ψ
##ω
##б
##г
##д
##ж
##з
##м
##п
##с
##у
##ф
##х
##ц
##ч
##ш
##щ
##ъ
##э
##ю
##ђ
##є
##і
##ј
##љ
##њ
##ћ
##ӏ
##ա
##բ
##գ
##դ
##ե
##թ
##ի
##լ
##կ
##հ
##մ
##յ
##ն
##ո
##պ
##ս
##վ
##տ
##ր
##ւ
##ք
##־
##א
##ב
##ג
##ד
##ו
##ז
##ח
##ט
##י
##ך
##כ
##ל
##ם
##מ
##ן
##נ
##ס
##ע
##ף
##פ
##ץ
##צ
##ק
##ר
##ש
##ת
##،
##ء
##ب
##ت
##ث
##ج
##ح
##خ
##ذ
##ز
##س
##ش
##ص
##ض
##ط
##ظ
##ع
##غ
##ـ
##ف
##ق
##ك
##و
##ى
##ٹ
##پ
##چ
##ک
##گ
##ں
##ھ
##ہ
##ے
##अ
##आ
##उ
##ए
##क
##ख
##ग
##च
##ज
##ट
##ड
##ण
##त
##थ
##द
##ध
##न
##प
##ब
##भ
##म
##य
##र
##ल
##व
##श
##ष
##स
##ह
##ा
##ि
##ी
##ो
##।
##॥
##ং
##অ
##আ
##ই
##উ
##এ
##ও
##ক
##খ
##গ
##চ
##ছ
##জ
##ট
##ড
##ণ
##ত
##থ
##দ
##ধ
##ন
##প
##ব
##ভ
##ম
##য
##র
##ল
##শ
##ষ
##স
##হ
##া
##ি
##ী
##ে
##க
##ச
##ட
##த
##ந
##ன
##ப
##ம
##ய
##ர
##ல
##ள
##வ
##ா
##ி
##ு
##ே
##ை
##ನ
##ರ
##ಾ
##ක
##ය
##ර
##ල
##ව
##ා
##ก
##ง
##ต
##ท
##น
##พ
##ม
##ย
##ร
##ล
##ว
##ส
##อ
##า
##เ
##་
##།
##ག
##ང
##ད
##ན
##པ
##བ
##མ
##འ
##ར
##ལ
##ས
##မ
##ა
##ბ
##გ
##დ
##ე
##ვ
##თ
##ი
##კ
##ლ
##მ
##ნ
##ო
##რ
##ს
##ტ
##უ
##ᄀ
##ᄂ
##ᄃ
##ᄅ
##ᄆ
##ᄇ
##ᄉ
##ᄊ
##ᄋ
##ᄌ
##ᄎ
##ᄏ
##ᄐ
##ᄑ
##ᄒ
##ᅡ
##ᅢ
##ᅥ
##ᅦ
##ᅧ
##ᅩ
##ᅪ
##ᅭ
##ᅮ
##ᅯ
##ᅲ
##ᅳ
##ᅴ
##ᅵ
##ᆨ
##ᆫ
##ᆯ
##ᆷ
##ᆸ
##ᆼ
##ᴬ
##ᴮ
##ᴰ
##ᴵ
##ᴺ
##ᵀ
##ᵃ
##ᵇ
##ᵈ
##ᵉ
##ᵍ
##ᵏ
##ᵐ
##ᵒ
##ᵖ
##ᵗ
##ᵘ
##ᵣ
##ᵤ
##ᵥ
##ᶜ
##ᶠ
##‐
##‑
##‒
##–
##—
##―
##‖
##‘
##’
##‚
##“
##”
##„
##†
##‡
##•
##…
##‰
##′
##″
##›
##‿
##⁄
##⁰
##ⁱ
##⁴
##⁵
##⁶
##⁷
##⁸
##⁹
##⁻
##ⁿ
##₅
##₆
##₇
##₈
##₉
##₊
##₍
##₎
##ₐ
##ₑ
##ₒ
##ₓ
##ₕ
##ₖ
##ₗ
##ₘ
##ₚ
##ₛ
##ₜ
##₤
##₩
##€
##₱
##₹
##ℓ
##№
##ℝ
##™
##⅓
##⅔
##←
##↑
##→
##↓
##↔
##↦
##⇄
##⇌
##⇒
##∂
##∅
##∆
##∇
##∈
##∗
##∘
##√
##∞
##∧
##∨
##∩
##∪
##≈
##≡
##≤
##≥
##⊂
##⊆
##⊕
##⊗
##⋅
##─
##│
##■
##▪
##●
##★
##☆
##☉
##♠
##♣
##♥
##♦
##♯
##⟨
##⟩
##ⱼ
##⺩
##⺼
##⽥
##、
##。
##〈
##〉
##《
##》
##「
##」
##『
##』
##〜
##あ
##い
##う
##え
##お
##か
##き
##く
##け
##こ
##さ
##し
##す
##せ
##そ
##た
##ち
##っ
##つ
##て
##と
##な
##に
##ぬ
##ね
##の
##は
##ひ
##ふ
##へ
##ほ
##ま
##み
##む
##め
##も
##や
##ゆ
##よ
##ら
##り
##る
##れ
##ろ
##を
##ん
##ァ
##ア
##ィ
##イ
##ウ
##ェ
##エ
##オ
##カ
##キ
##ク
##ケ
##コ
##サ
##シ
##ス
##セ
##タ
##チ
##ッ
##ツ
##テ
##ト
##ナ
##ニ
##ノ
##ハ
##ヒ
##フ
##ヘ
##ホ
##マ
##ミ
##ム
##メ
##モ
##ャ
##ュ
##ョ
##ラ
##リ
##ル
##レ
##ロ
##ワ
##ン
##・
##ー
##一
##三
##上
##下
##不
##世
##中
##主
##久
##之
##也
##事
##二
##五
##井
##京
##人
##亻
##仁
##介
##代
##仮
##伊
##会
##佐
##侍
##保
##信
##健
##元
##光
##八
##公
##内
##出
##分
##前
##劉
##力
##加
##勝
##北
##区
##十
##千
##南
##博
##原
##口
##古
##史
##司
##合
##吉
##同
##名
##和
##囗
##四
##国
##國
##土
##地
##坂
##城
##堂
##場
##士
##夏
##外
##大
##天
##太
##夫
##奈
##女
##子
##学
##宀
##宇
##安
##宗
##定
##宣
##宮
##家
##宿
##寺
##將
##小
##尚
##山
##岡
##島
##崎
##川
##州
##巿
##帝
##平
##年
##幸
##广
##弘
##張
##彳
##後
##御
##德
##心
##忄
##志
##忠
##愛
##成
##我
##戦
##戸
##手
##扌
##政
##文
##新
##方
##日
##明
##星
##春
##昭
##智
##曲
##書
##月
##有
##朝
##木
##本
##李
##村
##東
##松
##林
##森
##楊
##樹
##橋
##歌
##止
##正
##武
##比
##氏
##民
##水
##氵
##氷
##永
##江
##沢
##河
##治
##法
##海
##清
##漢
##瀬
##火
##版
##犬
##王
##生
##田
##男
##疒
##発
##白
##的
##皇
##目
##相
##省
##真
##石
##示
##社
##神
##福
##禾
##秀
##秋
##空
##立
##章
##竹
##糹
##美
##義
##耳
##良
##艹
##花
##英
##華
##葉
##藤
##行
##街
##西
##見
##訁
##語
##谷
##貝
##貴
##車
##軍
##辶
##道
##郎
##郡
##部
##都
##里
##野
##金
##鈴
##镇
##長
##門
##間
##阝
##阿
##陳
##陽
##雄
##青
##面
##風
##食
##香
##馬
##高
##龍
##龸
##ﬁ
##ﬂ
##！
##（
##）
##，
##－
##．
##／
##：
##？
##～
#
##
a
b
c
d
e
f
g
h
i
j
k
l
m
n
o
p
q
r
s
t
u
v
w
x
y
z
the
of
and
in
to
was
he
is
as
for
on
it
his
by
at
her
she
you
had
an
but
be
are
not
my
one
or
him
me
all
has
up
who
out
new
two
its
no
we
so
can
if
do
now
may
did
don
off
way
re
how
get
de
us
any
day
see
man
war
go
won
end
too
old
own
ll
use
air
our
few
men
set
age
got
let
ve
top
why
due
st
say
son
law
saw
art
put
six
red
led
run
cup
ii
km
la
car
big
non
far
co
act
per
am
san
al
god
low
win
yet
tv
ten
sea
hit
ran
yes
mi
met
bed
oh
lot
arm
dr
uk
boy
sir
bad
sat
bit
hot
cut
bay
ft
try
mid
via
sun
job
guy
key
van
ask
eye
ice
die
gun
ago
bar
sex
lee
le
tom
el
mm
pay
box
oil
sam
iii
joe
mom
dad
pre
era
sky
cd
pop
jr
et
gas
ben
dog
bus
lay
bob
ed
del
com
pro
des
ray
max
sit
tax
leg
inc
der
dry
en
etc
fox
di
nor
eat
bag
ear
fun
ass
cm
bc
les
ex
mix
aid
lie
kg
fm
ad
web
da
kid
fly
un
pp
fit
dan
iv
hey
cat
sub
map
wet
ep
buy
lap
ma
sr
hip
row
vol
ha
cry
lip
vs
fan
dam
sq
tie
mad
lit
jan
tea
add
mph
li
gay
net
ill
rio
jaw
ann
ceo
ms
las
dc
ty
tip
odd
hat
lb
roy
dna
pan
mac
jay
oak
mp
und
hop
cap
ca
ah
ye
raw
il
ken
ny
tag
kw
rob
sad
fur
hp
joy
eve
gap
na
aim
fat
pa
bet
ash
leo
op
pit
bow
vi
duo
lab
ph
jet
ron
fa
ted
lp
pat
ss
rev
bat
ban
bid
pen
nod
fed
se
fee
pc
www
sao
ho
inn
pm
hi
han
nee
sum
ivy
ibn
em
uh
ok
den
bin
ya
sc
fix
arc
min
jo
ram
sin
egg
ce
ski
lt
xi
rod
mud
um
sts
hug
spy
dug
ba
das
au
mia
wu
ate
ps
log
lo
cop
vii
col
id
te
org
kit
bo
pot
gen
pet
si
pub
bye
ace
tan
toy
ni
sox
zoo
pin
neo
dee
cab
eva
rat
ac
mar
jam
er
rid
con
gut
tin
cox
mo
hub
chi
huh
ana
fog
rap
es
ap
gym
jin
est
aa
sue
yu
os
aka
ai
doc
dos
im
tel
rex
ion
wow
hon
ton
cal
fin
pig
ch
fr
app
bee
cc
ka
kat
ham
dig
sip
ink
sec
ore
que
fi
kay
ava
yo
vic
rip
hay
shy
hid
mt
dot
tap
ab
pdf
ups
iso
cow
zoe
mob
ne
lu
wa
mc
pie
ki
lin
rim
mg
mel
oz
cam
rpm
din
bra
pad
beg
dec
dim
val
toe
ix
bug
fu
sp
lid
shi
kai
ta
raj
par
eds
jun
ar
bi
lea
mon
ned
yi
mk
spa
sen
alt
owe
hut
kin
rs
meg
ng
ko
tug
dub
cf
ag
axe
mum
bud
tri
ego
var
fl
nm
nov
oct
aaa
def
rue
po
aye
lil
mat
owl
phi
icy
yan
ave
cr
ing
tai
wax
pt
gm
og
cum
sol
sh
wan
nat
pam
zip
blu
mu
gt
pi
ser
fk
tub
xii
dom
sic
ant
pal
fcc
rub
td
pas
chu
abs
mir
mai
fry
mug
lad
ti
ja
abe
gal
hum
ren
ct
pol
ads
hai
ou
mao
thy
awe
goa
sk
uc
mal
gig
aug
sm
plc
eh
zhu
wi
ri
rai
xv
obe
ole
yep
ale
jar
ark
sid
cha
tow
woo
wc
hu
xiv
wit
xu
bio
ins
gum
tex
cue
dir
ked
mas
sal
th
ds
gb
rep
nu
ios
nyc
sf
rd
dev
dip
jew
sci
nun
aft
nan
maj
zen
wee
nos
xvi
mod
mb
lam
tar
hmm
faa
gem
ang
rom
soo
tor
elf
tee
dem
az
nr
tam
lex
sac
fae
eco
ul
sd
dal
nut
pod
hui
bp
sob
elm
imp
rag
psi
nak
hr
ile
sv
nl
gov
cp
om
che
gag
yin
sly
hee
dar
gin
yen
bt
ju
lim
dye
doe
bs
rot
til
ky
pg
lac
dai
qi
tad
cl
poe
sai
elk
nap
bas
ara
tx
vow
wen
nj
sud
ol
bel
rum
rt
rib
ea
cod
aux
aba
orb
hem
pts
sax
reg
gu
qin
sep
apr
tr
rig
mv
flu
wil
ml
med
syn
tau
det
int
sap
vie
cs
ao
doo
cis
tao
pl
geo
gee
hm
bey
dd
bis
eps
yer
rug
hue
dex
lbs
av
ras
ik
rye
bu
roe
fig
nah
gi
ono
yd
lai
kc
bun
sha
ut
auf
vp
roc
af
pee
mer
ff
dl
gel
ist
fir
tab
kb
fen
het
bai
rf
ala
hen
pe
sim
wed
cub
boo
quo
xx
moe
aw
bog
pak
paw
sg
bhp
ax
foe
tis
cy
nmi
ich
tha
kan
io
bb
wah
dso
bro
mic
ox
uv
ops
fay
nad
dow
fx
lev
nix
za
opt
mil
wai
amp
zee
tt
dat
spd
pow
mag
fey
bk
ape
ode
ska
mn
wo
eel
ufo
wig
ur
res
ts
ic
pia
wry
dun
gr
caf
sis
sb
bn
dew
rei
ns
lew
ci
peg
moi
soy
qc
ee
cas
vis
bam
fra
mmm
ref
ua
sw
ld
als
eng
wb
bae
ley
ama
bao
gan
pea
cot
umm
pun
luz
hs
bum
dod
jug
viz
mab
pup
apt
sho
yoo
lei
gnu
tak
pcs
soc
tun
atm
pep
pic
lax
tia
ind
goo
hog
ow
nur
tho
kam
ze
eta
ob
np
nic
tay
coa
och
gs
wat
tn
pip
cad
lux
bot
rm
rec
tod
ter
esa
cpi
vt
kun
bf
uta
pau
ems
pew
pry
lc
zac
rn
ae
nay
foo
ars
bop
vox
ie
vet
ks
tbs
aaron
a##
back
abandon
##ed
##ing
##ment
abba
##s
abbess
abbey
abbot
abbreviate
##ion
abdomen
##al
abduct
abigail
able
##ity
ab##
normal
board
abolish
##tion
##ist
aboriginal
abort
abram
broad
abrupt
##ly
absence
absent
absolute
absorb
absorption
abstract
absurd
abundance
abundant
##ive
abyss
acacia
academia
academic
academy
accelerate
##or
accent
accept
##able
##ance
access
accessible
accession
accessory
accident
acclaim
accolade
accommodate
accompany
accomplish
accord
accordion
account
##ant
accredit
##ation
accumulate
accurate
##cy
accuse
accustom
ache
achieve
acid
##ic
acknowledge
acknowledg
acoustic
acquaint
acquire
##ition
quit
acre
acro##
##onym
##ate
activation
##ism
acton
##ess
actual
acute
adamant
adapt
addict
addition
additive
address
adele
adept
adequate
adhere
adherence
adherent
adjacent
adjoin
adjunct
adjust
adjutant
administer
administration
administrate
administrator
admiral
##ty
admiration
admire
admission
admit
adobe
adolescence
adolescent
ad##
adoption
adorable
adore
adorn
adrenal
##ine
adult
adultery
##hood
advance
advantage
advent
adventure
##er
adventurous
adversary
adverse
advertise
advise
##ory
advocacy
advocate
aerial
aero
drome
aero##
dynamic
nautical
aeronautics
space
aesthetic
##ics
affair
affect
affectionate
affiliate
affiliation
affine
affirmative
affirm
affluent
afford
afghan
fore##
mention
afro
after##
life
math
noon
after
##ward
##wards
agency
agenda
agent
aggravate
aggregate
aggregation
aggression
aggress
agile
agitate
agitation
agony
agra
agrarian
agree
agriculture
ground
aide
##borne
craft
aire
field
lift
line
airmen
plane
play
port
ship
aisle
ajax
akbar
alan
alarm
alaska
alba
albeit
album
alcohol
alderman
alec
alert
alexander
alexia
alfa
alfredo
algae
algebra
algorithm
alias
alien
align
alike
live
alla
allah
allegation
allege
allegiance
allegro
allergy
alleviate
alley
ally
alligator
allocate
allocation
allot
allow
alloy
alma
al##
might
##y
almond
along
side
loud
alpha
alphabet
alpine
alp
right
alta
altar
alter
alternate
alternative
altitude
alto
together
alumen
##ium
aluminum
alumni
alumnus
amalgamate
amalgamation
amass
amateur
maze
amazon
ambassador
amber
ambient
ambiguity
ambiguous
ambition
ambitious
ambrose
ambulance
ambush
amelia
amend
amendment
amenity
americana
ames
amidst
amiga
amin
amino
amir
ammonia
ammunition
amnesia
amnesty
amongst
amor
amore
amount
amour
amphibious
ample
##ify
##itude
amtrak
amulet
amuse
anaheim
anal
analog
analogous
analogue
analogy
analyses
analysis
analyst
analytic
analytical
analytics
analyze
anarchist
anarchy
ana##
##tomy
##ical
ancestor
ancestral
ancestry
anchor
##age
ancient
andro##
##oid
andy
angel
angelica
anger
angle
anglo
angry
anguish
angular
animal
animate
anime
ankle
anna
annal
annex
annexation
annie
anniversary
announce
annoyance
annoy
annual
annum
anomaly
anonymous
answer
antagonist
antarctic
antarctica
antenna
antennae
antennas
anterior
anthem
anthologies
anthology
anthropology
anti
antibiotic
anti##
body
anticipate
anticipation
antic
antigen
antique
anxiety
anxious
more
thing
time
where
apache
apartheid
apartment
aperture
apex
apical
apocalypse
apocalyptic
apollo
apologetic
apology
##ize
apostle
apostolic
appall
apparatus
apparel
apparent
appeal
appear
appellate
appendix
appetite
applause
apple
apply
applicable
applicant
application
appoint
appointment
appreciate
apprehension
apprentice
##ship
approach
appropriate
appropriation
approve
approximate
approximation
apron
aqua
aquarium
aquatic
aqueduct
arabic
arabs
arbitrary
arbitration
arbor
arboretum
arcade
arcadia
arch
archaeo##
##logy
archaic
arch##
bishop
deacon
diocese
duke
archeology
archer
##ery
archie
archipelago
architect
architecture
archive
arctic
ardent
area
arena
argent
argentina
argentine
argue
argus
argyle
argyll
aria
arid
ariel
rise
aristocracy
aristocratic
arithmetic
armada
armament
chair
army
armistice
armor
armoury
armour
aroma
aromatic
arose
rouse
arrange
array
rest
arrive
arrogance
arrogant
arrondissement
arrow
arroyo
arsenal
arsenic
arson
artifact
artery
arthritis
article
articulate
artificial
artillery
artisan
artist
artistic
##work
asbestos
ascend
ascension
ascent
ascot
scribe
asha
ashame
ashe
asher
shore
sleep
aspect
asp
##en
asphalt
aspire
assassin
assault
assemble
assembly
assent
assert
assertion
assess
asset
hole
assign
assignment
assimilate
assist
assistance
assistant
assists
associate
assort
assume
assumption
assure
asteroid
asthma
aston
astonish
astro
astro##
##naut
##nomy
astronomical
asylum
atari
atheist
athlete
atlas
atmo##
##sphere
atoll
atom
atrium
atrocity
attach
attache
attack
attain
attempt
attend
attendance
attendant
##ee
attention
attest
attic
attire
attitude
attorney
attract
attractive
attribute
auburn
auction
audi
audible
audience
audio
audit
audition
auditor
auditory
augment
august
augusta
auguste
aunt
aura
aurora
auspice
authentic
authentication
author
authorise
authority
##arian
##ative
authorize
autism
auto
auto##
biography
automate
automatic
##ally
automobile
motive
##ous
autopsy
autumn
auxiliary
avail
avalanche
avant
avatar
avenge
avenue
average
aviation
aviator
avid
avoid
avoidance
await
awake
awaken
award
aware
##ness
##some
##ful
awhile
awk
awoke
axel
axis
axle
azure
baba
babe
baby
babu
babylon
baccalaureate
bach
bachelor
bone
drop
lash
pack
seat
stage
stroke
yard
bacon
bacteria
bacterium
badge
##ard
badminton
baffle
bafta
baggage
bahadur
bahia
bail
bailey
bain
bait
bake
balance
balcony
bald
ballad
ballast
ballet
ballistic
balloon
ballot
ball
room
balthazar
baltic
bamboo
banana
banco
band
banda
bandage
bandit
wide
##th
bane
bang
banish
banjo
bank
bankrupt
banner
banquet
baptise
baptism
baptist
baptize
barack
barangay
barbara
barbarian
barbecue
barb
barber
barbie
bard
bare
foot
bargain
barge
bari
baritone
bark
bere
barn
barnet
barney
baron
baronet
barons
barony
baroque
barrack
barrage
barre
barrel
barren
barrier
barrio
barrister
barrow
barry
tender
barton
base
basalt
bash
basha
basil
basilica
basin
basis
basket
basque
bass
bast
bastion
batch
bate
bath
bathe
baton
battalion
batter
battery
battle
battling
bavarian
baxter
bayou
bazaar
beach
beacon
bead
beak
beam
bean
beard
bear
beast
beat
beau
beauty
beaux
beaver
beck
becker
becky
become
rock
##side
beech
beef
beer
bite
##le
before
hand
be##
friend
begin
begun
half
have
behavior
behaviour
head
hold
beige
beit
belief
believe
bella
belle
bellow
bell
belly
belong
belove
belt
bench
bend
neath
benedict
benefactor
beneficial
benefit
benevolent
bengal
benign
benjamin
benny
##t
quethe
berg
bergen
berlin
bernard
berry
bertha
bertram
beside
siege
stow
best
sell
betta
beth
bethel
tray
betty
beverage
bewilder
beyond
bias
bible
bibliography
biceps
bicycle
bien
biennale
bi##
##ennial
##est
bike
bikini
lateral
bile
lingua
bill
##illion
##aire
billy
binary
bind
bing
bingo
binoculars
bio##
chemist
##ry
diversity
mass
medical
techno##
polar
birch
bird
place
biscuit
##sexual
##ric
bismarck
bison
bitch
bizarre
black
##ish
blackmail
blackout
smith
bladder
blade
blah
blake
blame
blanc
blanca
blanche
blanco
bland
blank
blanket
blast
blaze
bleak
bled
bleed
blend
bless
blew
blind
blink
bliss
blitz
blizzard
bloc
block
##ade
bust
blog
blonde
blood
bloom
blossom
blouse
blow
##n
blue
grass
bluff
blunt
blur
blurt
blush
boar
walk
boast
boat
bobby
bobo
boca
guard
bohemia
bohemian
boil
boi
bold
bolivar
bolivia
bologna
bolshevik
bolt
bomb
bombardier
bombard
bond
fire
bonnet
bonnie
bono
bonus
boogie
book
##let
store
boom
boon
boost
boot
booth
bordeaux
border
bore
##dom
borg
borne
borneo
borough
borrow
bose
boss
botanic
botany
bother
bottle
bottom
boulder
boulevard
bounce
bound
##ary
bounty
bouquet
bourbon
bourgeois
bourne
bout
boutique
bowie
bowl
##man
boycott
boyer
boyle
brace
bracelet
bracket
brad
brady
braid
brain
brake
bran
branch
brand
brandy
brant
brass
brat
brave
bravery
bravo
brawl
bray
brazil
breach
break
away
breakdown
fast
breakout
through
breast
breathe
##less
bred
bree
breed
breeze
brent
brest
brother
brett
brew
brewer
brewster
brian
bribe
brick
bride
bridge
brief
case
brig
brigade
##ier
bright
brilliance
brilliant
bring
brink
brisk
bristol
brit
cast
brock
brodie
brody
broke
bronco
bronze
brood
brook
brooke
broom
brothel
brow
brown
browse
bruce
bruin
bruise
brunette
brush
brussels
brutal
brute
bubba
bubble
buccaneer
buck
bouk
##et
buddha
buddy
budge
budget
buena
buff
buffalo
buffet
build
bulb
bulge
bulk
bull
bullet
bulletin
##ock
shit
bully
bump
bunch
bundle
bungalow
bunk
bunker
burden
bureau
##cracy
burger
burgess
burgundy
burial
bury
burke
burn
burr
burrow
burst
burton
bush
busy
business
businessmen
busted
butch
butcher
butler
butt
butte
butter
button
buzz
by##
pass
byte
byzantine
cabaret
cabbage
cabin
cable
cache
cactus
cade
cadence
cadet
caesar
cafe
cafeteria
cage
cain
cairn
cake
calcium
calculate
calculus
calcutta
cale
calendar
calf
caliber
caliph
call
calm
camel
cameo
camera
camouflage
camp
campaign
campus
##o
canada
canadien
canal
canary
cancel
cancer
candace
candi
candidate
candle
candy
cane
canine
cannabis
cannon
canoe
canon
canopy
cantata
canteen
canterbury
canton
cantor
canvass
canyon
capable
capacity
capcom
cape
capita
capital
capitalist
capitol
cappella
capsule
capt
captain
captive
capture
caravan
carbon
carbonate
card
cardiac
cardinal
cardio##
vascular
care
career
caress
take
cargo
carl
carmel
carmen
carmine
carnage
carnival
carol
carolina
caroline
carousel
carp
carpenter
carpet
carr
carriage
carrie
carry
carrot
cart
cartel
cartoon
cartridge
cartwright
carve
cary
casa
cascade
cash
casino
cask
cass
cassandra
cassette
cassie
caste
castile
castle
castro
casual
casualty
catalog
catalogue
catalyst
catalytic
catastrophe
catch
category
cate
fish
cathedral
catholic
caucasian
caucus
causal
cause
causeway
caution
cavalier
cavalry
cave
cavendish
cavern
cavity
caiman
cease
cecil
cedar
cede
ceiling
celebrate
celebration
celebrity
celeste
celestial
cellar
cello
cell
cellular
celtic
cement
cemetery
censor
census
centenary
cent##
center
centimeter
centimetre
central
cent
century
ceramic
cereal
cerebrum
ceremonial
ceremony
certain
certainty
certificate
certification
certify
cervical
chad
chain
person
chalk
challenge
chamber
chamberlain
champ
champagne
champaign
champion
chan
chancel
chancellor
chance
chandler
chang
change
channel
chant
chao
chaos
##otic
chapel
chaplain
chaplin
cheap
chapter
char
character
##ise
characteristic
coal
charge
chariot
charismatic
charitable
charity
charleston
charley
charlie
charlotte
charm
chart
charter
chase
chassis
chat
chateau
chatter
cheat
check
point
cheek
cheer
cheerlead
cheese
chef
chemic
chemo##
therapy
cheng
cherry
chess
chest
chester
chesterfield
chestnut
heth
cheung
chevalier
chivvy
chew
chiang
chick
cock
chico
chief
chieftain
chihuahua
childbirth
child
##ren
chile
chili
chill
chilled
chime
chimney
chin
china
chinese
ching
chip
chloride
chocolate
choice
choir
choke
cholera
chong
choose
chop
chopin
choral
chorale
chord
choreograph
choreographer
choreography
chore
chorus
chose
chow
christ
christi
christie
christy
chrome
chromo##
chronic
chronicle
chrono##
##logical
chuck
chung
chunk
church
churn
cicero
cigar
cigarette
cinder
cinderella
cinema
cinematic
cinematography
cinnamon
cipher
circa
circle
circuit
circular
circulate
circumstance
circus
cisco
citadel
citation
cite
city
citizen
citrus
civic
civil
civilian
civilization
clad
clade
claim
clair
claire
clamp
clan
clancy
clandestine
clap
clara
clare
clarence
clear
clarinet
clarity
clary
clash
clasp
class
classification
classify
mate
clause
claw
clay
clean
cleanse
cleanup
cleave
clement
clench
cleopatra
clergy
cleric
clerical
clerk
clever
click
client
cliff
climate
climax
climb
clinch
cling
clinic
clint
clip
clit
clive
cloak
clock
##wise
clone
close
closure
cloth
clothe
cloud
clover
clown
club
house
clue
clumse
clung
cluster
clutch
coach
coalition
coarse
coast
coaster
coat
cobalt
cobb
cobra
coca
cocktail
cocky
coco
cocoa
code
codex
coefficient
coffee
coffin
cognition
cognitive
cohen
coherent
coil
coin
coinage
coincide
##ence
co##
incident
coke
cola
cold
cole
coli
colin
coliseum
collaborate
collaborator
collapse
collar
collateral
colleague
collect
collection
collective
collector
colleen
college
collegiate
collide
collier
collin
collins
collision
colloquial
cologne
colon
colonel
colony
colonization
colorado
coloration
color
colossal
colour
colourful
colt
column
coma
comb
combat
combatant
combine
combo
combust
come
comedy
##ian
comet
comfort
comfortable
comic
command
commandant
commander
commando
commemorate
commence
commendation
commend
comment
commentary
##ator
commerce
##ial
commission
commissioner
commit
commodity
commodore
common
commonplace
weal
commotion
communal
commune
communicate
communion
communism
communist
commute
compact
company
companion
comparable
comparative
compare
comparison
compartment
compass
compassion
compassionate
compatible
compel
compensate
compensation
compete
competence
competent
competition
competitor
compilation
compile
compiler
complain
complaint
complement
complete
complex
complexion
comply
complicate
component
compose
composite
composition
##ure
compound
comprehend
comprehension
comprehensive
compress
compression
comprise
compromise
compulsion
compulsory
compute
comrade
comte
comune
conceal
concede
conceive
concentrate
concept
conception
conceptual
concern
concert
concerto
concession
conclude
conclusion
concord
concourse
concrete
concurrency
concurrent
concuss
conn
condemn
condemnation
condense
conditional
condition
condo
condom
condor
conduct
conductor
cone
confederacy
confederate
confederation
conference
confer
confess
confide
confident
confidential
configure
confine
confirm
confiscate
conflict
confluence
conform
confront
confuse
cong
congenital
congestion
conglomerate
congo
congratulation
congregation
congress
congression
conic
conjecture
conjunction
connect
conner
connie
conquer
conquest
conscience
conscious
conscription
consecrate
consecration
consecutive
consensus
consent
consequence
consequent
conserve
conservatoire
consider
consist
consistency
consistent
consolation
console
consolidate
consolidation
consonant
consort
consortium
conspicuous
conspiracy
constable
constabulary
constant
constellation
constituency
constituent
constitute
constitutional
constrain
constraint
construct
consul
consular
consulate
consult
consultant
consultative
consume
consumption
contact
contain
contaminate
contamination
contemplate
contemporary
contempt
contend
content
contention
contentious
contest
contestant
context
contiguous
continent
contingent
continual
continue
continuity
continuous
continuum
contra
contract
contractor
contractual
contradiction
contradictory
contrary
contrast
contribute
contribution
contributor
control
controversial
controversy
convection
convene
convenience
convenient
convent
convention
converge
converse
conversion
convert
##ible
convex
convey
convict
conviction
convince
convoy
cook
cookie
cool
coop
cooperate
cooperation
cooperative
coordinate
copa
cope
copy
copper
coral
corbin
cordoba
core
cork
corner
stone
cornice
cornish
corona
coronation
coroner
corp
corporal
corporate
corporation
corps
corpse
corpus
correct
correction
correlate
correspond
correspondent
corridor
corrosion
corrugate
corrupt
corruption
cortex
corvette
cory
cosmetic
cosmetics
cosmos
cosmopolite
##an
costa
cost
costume
cote
cottage
couch
cougar
cough
colter
council
councillor
counsel
counselor
count
down
counter
counterattack
counter##
part
countess
county
country
coup
coupe
couple
courage
courageous
courier
course
court
courtesy
courtship
cousin
cove
coven
covenant
covent
cover
covert
covet
cowan
coward
coyote
cozy
crab
crack
cradle
craftsmen
craig
cramp
crane
crank
crap
crash
crate
krater
crave
craven
crawl
craze
creak
cream
create
creative
creator
creature
credential
credibility
credible
credit
creditor
creed
creek
creep
cremate
creole
crept
crescent
crest
cretaceous
crew
crewe
cricket
crime
criminal
crimson
cringe
crises
crisis
crisp
criteria
criterion
critic
critical
critique
crocodile
croft
crook
crop
crore
cross
crossover
road
crotch
crouch
crow
crowd
crown
croydon
crucial
crude
cruel
cruise
crumb
crump
crunch
crusade
crush
crust
crypt
cryptic
crystal
crystalline
cuban
cube
cubic
cuckoo
cuff
cuisine
culinary
culminate
cult
cultivate
cultivation
culture
cumulate
cunningham
curate
curator
curb
cure
curious
curl
curran
currency
current
curriculum
currie
curry
curse
curt
curtain
curvature
curve
cushion
custody
custom
customary
customer
customs
cute
cutler
cyber
cycle
cyclic
cyclone
cylinder
cynic
cypress
dade
daemon
dagger
dairy
daisy
dale
dali
dalton
damage
damascus
dame
dammit
damn
damp
dana
dance
danger
dangle
daniel
danish
daphne
darby
darcy
dare
dark
dear
##ling
dart
darwin
dash
data
date
daughter
dauphin
dave
davenport
davy
dawn
light
daze
deadline
dead
deaf
deal
dealings
dealt
dean
death
debate
debris
debt
debut
deca##
##ad
decay
decease
decent
deception
decide
deciduous
decision
decisive
deck
declaration
declare
decline
deco
de##
decor
decorate
decorative
decrease
decree
dedicate
dedication
deed
deem
deep
deer
defamation
default
defeat
defect
defective
defence
defend
defendant
defense
defensive
defiance
defiant
deficit
##ency
define
definite
definitive
deform
defunct
degrade
degree
deity
delay
delegate
delegation
delete
deliberate
delicate
delicious
delight
deliver
delivery
dell
delta
deluxe
demand
demeanor
dementia
demy
demise
demo
demo##
democrat
democratic
##graphy
demographics
demolish
demolition
demon
demonic
demonstrate
demote
deny
denim
deni
denomination
denote
denounce
dense
dent
dental
dentist
depart
department
departmental
departure
depend
dependent
depict
depiction
deplete
deploy
ployment
deportation
deport
depose
deposit
deposition
depot
depress
depression
deprivation
deprive
deputy
derby
derelict
derive
derivative
derrick
derry
descend
descendant
descent
describe
description
descriptive
desert
deserve
designate
design
desire
desk
desmond
despair
desperate
despise
despite
dessert
destination
destine
destiny
destroy
destruction
destructive
detach
detail
detain
detect
detection
detective
detention
deter
deteriorate
determine
detonate
detrimental
deux
devastate
devastation
develop
deviate
device
devil
devise
devoid
devon
devote
devout
dexter
dharma
diabetes
diablo
diagnose
diagnosis
diagnostic
diagonal
diagram
dial
dialect
dialogue
diameter
diamond
diary
diaspora
dice
dick
dickens
dictate
diego
diesel
diet
differ
differential
differentiate
different
difficulty
diffuse
digest
digit
digital
dignitary
dignity
dilapidate
dilemma
dime
dimension
diminish
dine
ding
dinner
dino
dinosaur
diocesan
di##
oxide
diploma
diplomacy
diplomat
dire
direct
directive
director
directorate
directory
dirk
dirt
dis##
disadvantage
disappoint
disaster
disastrous
disc
disciple
disciplinary
discipline
disclose
disclosure
disco
discomfort
discontinue
discount
discourse
discover
discovery
discreet
discrete
discretion
discriminate
discus
discuss
discussion
disdain
ease
disgrace
disguise
disgust
dish
disk
like
dismantle
dismay
dismiss
mount
order
dispatch
disperse
displace
display
displeasure
dispose
##i
dispute
qualification
qualify
regard
repair
disrupt
disruption
satisfaction
satisfy
dissemination
dissent
dissertation
dissipate
dissolution
dissolve
distal
distance
distant
distill
distinct
distinction
distinctive
distinguish
distort
distortion
distract
distraction
distraught
distress
distribute
distribution
district
trust
disturb
disuse
ditch
diva
dive
diverse
diversify
diversion
divert
divide
divine
division
divorce
dixie
dizzy
dobson
dock
doctoral
doctorate
doctor
doctrine
document
documentary
documentation
dodd
dodge
doha
doin
doll
dollar
dolphin
domain
dome
domesday
domestic
dominance
dominant
dominate
domination
dominion
domino
donate
donation
dong
donkey
donna
donor
doom
door
step
dope
dorm
dormant
dormitory
dorsum
dose
double
doubt
dough
dougla
dove
dowager
down##
fall
hill
load
stair
stream
town
dowry
dozen
draft
drag
dragon
dragoon
drain
drake
drama
dramatic
drank
drape
draper
drastic
draw
dread
dream
drench
dress
dresser
drew
drift
drill
drink
drip
drive
drone
drought
drove
drown
drug
drum
drunk
drury
dual
dubious
duchess
duchy
duck
duct
dude
duel
duet
duff
dull
dumb
dump
dune
dung
dungeon
duplicate
durable
duration
dusk
dust
dutch
duty
dwarf
dwell
dwelling
dyke
dynamite
dynamo
dynasty
dys##
function
eager
eagle
earl
earle
early
earn
earnest
ring
earth
quake
easy
east
##ern
ebony
e##
ex##
##centric
ecclesiastic
echo
eclectic
eclipse
ecology
economic
economics
eco##
economist
system
ecstasy
ecumenic
ed##
eden
edge
edible
edict
edit
edition
editor
educate
eerie
effective
effect
efficacy
efficiency
efficient
effort
eight
##teen
eighteenth
eighth
einstein
eject
elaborate
elaine
elastic
ell
elder
elect
election
elector
electrical
electric
electro
electrode
electro##
magnet
electron
electronics
elegance
elegant
element
elementary
elephant
elevate
eleven
eligibility
eligible
eliminate
elimination
elite
ellen
elliptic
elongate
else
elusive
email
emancipation
en##
embark
embarrass
embassy
emblem
em##
embroider
embroidery
embryo
emerald
emerg
emergent
emeritus
emery
emigrate
emigration
eminent
emir
emission
emit
emma
emotion
empathy
emperor
emphasis
emphasize
empire
empiric
employ
employment
power
empress
empty
enact
enamel
enchant
enclave
enclosure
encore
encounter
encourage
encouragement
encryption
encyclopedia
endeavor
endeavour
endemic
endorse
endow
endure
enemy
energetic
energy
enforce
gage
engagement
engine
##eer
grave
gulf
enhance
enigma
enjoy
enlarge
list
enoch
enormous
rage
enrich
enroll
enrol
ensemble
ensign
slave
ensue
ensure
enter
enterprise
entertain
enthusiasm
enthusiast
enthusiastic
entire
entirety
entity
entitle
entourage
entrance
entrepreneur
entry
entropy
envelope
envelop
environ
vision
envoy
envy
enzyme
epic
epi##
deme
epilogue
episcopal
episode
epithet
epoch
eponymous
epsilon
epstein
equal
equation
equator
equatorial
equestrian
equilibrium
equip
equity
equivalence
equ
##valent
erase
erect
erection
eric
erica
ernest
erode
erosion
erotic
erratic
erroneous
error
erupt
eruption
escalate
escape
escort
espionage
essay
essence
essential
establish
estate
este
esteem
estimate
estrange
estuary
etch
eternal
eternity
eth##
##ane
##ol
ethel
ether
ethernet
ethic
ethics
ethnic
etude
etymology
eucalyptus
euclidean
eureka
euro
evacuate
evacuation
evade
evaluate
evangelic
evangelist
evening
even
event
##ual
ever
green
every
everywhere
evict
evidence
evident
evil
evolution
evolve
exact
exaggerate
exam
examine
example
exasperate
excavate
excavation
exceed
excel
excellence
##ent
exception
excerpt
excess
excessive
exchange
exchequer
excite
exclaim
exclude
exclusion
exclusive
excursion
excuse
execute
execution
executive
exemplary
exemplify
exempt
exemption
exercise
exhale
exhaust
exhibit
exhibition
exile
exist
existent
exit
exodus
exotic
expand
expanse
expansion
expansive
expect
expedition
expel
expenditure
expense
experience
experiment
expert
expertise
expire
explain
explicit
explode
exploit
exploitation
explore
explosion
explosive
expo
exponential
export
expose
exposition
express
expressive
expulsion
exquisite
extant
extend
extension
extensive
extent
exterior
external
extinct
extinction
extinguish
extra
extract
extraction
extra##
ordinary
extravagant
extreme
eyre
faber
fabian
fable
fabric
fabricate
fabrication
fabulous
facade
face
facial
facilitate
facility
faction
facto
factory
factor
fact
faculty
fade
faerie
fail
failure
faint
fairbank
fair
fake
falcon
false
falter
fame
famed
familiar
families
famine
famous
fancy
fang
fanny
fantasia
fantasy
fantastic
fare
well
farm
land
farther
fascinate
fascism
fascist
fashion
fatal
fate
father
fatigue
faulkner
fault
fauna
faux
favor
favorable
favorite
favour
favourable
favourite
fear
feasibility
feasible
feast
feat
feather
weight
feature
federal
federate
feed
feel
fein
felicia
felicity
felix
fellow
felony
female
feminine
feminism
feminist
femme
fence
fend
feng
feral
fern
ferocious
ferry
fertile
fertility
fest
festival
festivity
fetus
fetch
feud
feudal
fever
fiance
fiancee
fiat
fiber
fibre
fiction
fictitious
fiddle
fide
fidelity
fierce
fiesta
fife
fifteen
fifteenth
five
fifty
fight
figurative
figure
file
fill
filly
film
make
filter
foul
finale
final
finance
finch
find
fine
finger
nail
print
finish
finite
finn
work
firm
first
firth
fiscal
fishermen
fission
fist
fitch
fitted
fixture
fjord
flag
flair
flame
flank
flap
flare
flash
flat
flavor
flavour
flaw
flea
flee
fledge
fleet
fleme
flemish
flesh
fletch
flew
flex
flick
flicker
flight
flinch
flinders
fling
flint
flip
flirt
float
flock
flood
floor
flop
flora
floral
florida
flotilla
flour
flourish
flow
flower
flown
fluctuate
fluent
fluff
fluid
flung
fluorescent
flush
flute
flux
foam
focus
focusing
foil
fold
foley
foliage
folk
lore
follow
folly
fon
font
food
fool
forage
forbade
for##
forbidden
force
forcible
ford
front
foreign
fore
##most
forensic
forest
forestry
wing
word
forge
give
forgot
fork
formal
format
form
former
formidable
formula
formulas
formulation
fort
forte
forth
forthcoming
fortification
fortify
fortress
fortune
forty
forum
fossil
foster
fought
foundation
found
founder
foundry
fountain
four
fourteen
fourteenth
fowl
foyer
fracture
fragile
fragment
fragrance
frail
frame
francais
francesca
franchise
franco
franc
frank
frankenstein
frankfurt
frankie
franklin
frantic
fraternity
fraud
fraudulent
fray
freak
free
lance
style
freeze
freight
frenzy
frequency
frequent
fresco
fresh
freshmen
water
friar
friction
fridge
frigate
fright
fringe
fritz
frog
frontier
frost
frown
froze
fruit
frustrate
fuck
fuel
fugitive
fuji
ful##
fulfillment
fulham
full
fumble
fund
fundamental
raise
funeral
fungal
fungi
fungus
funk
funnel
furious
furlong
furnace
furnish
furniture
furrow
##more
fury
fuscous
fuse
fuselage
fusilier
fusion
fuss
futile
futsal
future
fuzz
gab
gable
gaga
gain
gala
galactic
galaxy
gale
galilee
galileo
gall
gallant
gallery
galley
gallo
gallon
galloway
game
gamma
gang
ganga
##ster
gape
garage
garbage
garde
gardener
garden
garland
garlic
garment
garner
garrison
garth
gasoline
gasp
gaston
gastropod
gate
gather
gauge
gaunt
gaze
gazette
gear
geek
geese
gemma
gender
gene
genealogical
genealogy
genera
general
generate
generation
generator
generic
generosity
generous
genesis
genetics
genie
genius
genoa
genocide
##ome
genre
gentle
gentlemen
gentry
genuine
genus
geographic
geography
geology
geometric
geometry
germain
german
germanic
gesture
ghana
ghetto
ghost
giant
gibbon
gift
gigantic
giggle
gilbert
gild
gill
gillian
gina
ginger
girl
giro
glacial
glacier
glad
glamour
glance
gland
glare
glass
glaze
gleam
glee
glen
glide
glimpse
glint
glisten
glitter
globe
gloom
gloria
glory
gloss
glove
glow
glucose
glue
gmina
gnome
goal
keep
score
goat
goblin
goin
gold
golf
gong
gonna
goodbye
good
night
will
goof
google
goose
gora
gore
gorge
gorgeous
gorilla
gospel
sib
goth
gothic
gotta
gould
governance
govern
governor
govt
gown
grab
grace
grade
gradient
gradual
graduate
graduation
graf
graffiti
graham
grain
grains
gram
grammar
grammatical
grammy
gran
grand
grandchildren
grand##
grande
grandma
master
mother
parent
grange
granite
grannam
grant
grape
graph
graphic
graphics
grasp
grassroots
grate
gratitude
gravel
gravity
gray
graze
grease
great
greaves
greece
greed
greek
greene
wood
greet
gregorian
grenade
grey
hound
grid
grief
griffin
grille
grim
grimace
grime
grin
grind
grip
grit
groan
grocery
groin
groom
groove
gross
grotesque
group
grove
grow
growl
gruff
grumble
grunt
guarantee
guardian
gubernatorial
guernsey
guerre
guerrilla
guess
guest
guide
guido
guild
guilt
guinea
guise
guitar
gulp
gunmen
powder
shot
sling
gunter
gurney
guru
gust
gymnasium
gymnast
gymnastics
gypsy
habit
habitat
hack
hackney
hade
haggard
hail
hair
hajji
hale
half##
hall
mark
halo
halt
hamburg
hamilton
hamlet
hammer
hamper
hana
held
handicap
kerchief
handle
write
hang
hangar
hangeul
hank
hannah
hansom
happen
happy
hara
harass
harbor
harbour
hard
##ware
hardy
hare
hari
harm
harmonic
harmonica
harmony
harness
harp
harpsichord
harris
harrow
harry
harsh
hart
hartley
harvest
hash
haste
hastings
hatch
hate
##red
haul
haunt
haute
haven
havoc
hawk
hawker
haw
thorn
haye
hayward
hazard
hazardous
haze
hazel
headquarter
quarter
heal
health
healy
heap
hear
heart
hearth
heat
heath
heather
heave
heaven
heavy
heck
hectare
hector
hedge
heel
high
heir
helicopter
helium
helix
hell
heller
hello
helm
help
hemi##
sphere
hence
henley
henry
hepatitis
herald
heraldic
herb
herbal
herbert
hercules
herd
hereditary
heresy
heritage
hermit
hero
heroin
heroism
heron
herring
##self
hesitant
hesitate
hesitation
hess
hetero##
hiatus
hickory
hick
hidalgo
hide
hideous
hierarchical
hierarchy
highlands
hike
hilarious
hilt
hind
hinge
hint
hire
hispanic
hiss
historian
historic
historical
history
hitch
hits
hive
hoarse
hoax
hobby
hockey
hodge
hogan
hoist
holden
whole
holland
hollow
holloway
holly
holm
holmes
holocaust
holstein
holster
holt
homage
home
made
homer
stead
homicide
homme
homo
homogeneous
homo##
sexual
honda
honest
honey
moon
hong
honor
honour
honourable
hood
hook
hoop
hoover
hooves
hope
hopping
horde
horizon
horizontal
hormone
horn
horne
hornet
horrible
horrific
horror
horse
horsemen
shoe
horst
horticulture
hose
hospice
hospital
hospitality
host
hostage
hostages
hostel
hostess
hostile
hostility
hotel
spur
hour
hove
howe
howl
http
https
huang
huey
huff
huge
hulk
hull
humane
humanist
humanity
human
humble
humid
humiliate
humiliation
humour
hunch
hundred
hung
hunger
hunt
hurdle
hurl
hurley
hurricane
hurry
hurst
hurt
husband
hush
husk
hybrid
hyde
hydra
hydraulic
hydro
hydro##
hydrogen
hygiene
hymn
hyper
hypnotic
hypothesis
hypothetical
hysteria
hysteric
icon
ideal
idea
identic
identify
identification
identity
ideo##
idiot
idle
idol
ignite
ignition
ignorance
ignore
illegal
in##
legitimate
illicit
illuminate
illumination
illusion
illustrate
illustrious
image
imaginary
imagination
imaginative
imagine
imagin
imam
imitation
immaculate
immature
immediate
immense
immerse
immersion
immigrant
immigrate
imminent
immortal
immune
immunity
impact
impair
im##
patience
impatient
impend
imperative
perfect
imperial
impetus
implant
implement
implementation
implicate
implicit
imply
import
importance
important
impose
impossible
impoverish
impress
impression
impressive
imprint
imprison
impromptu
improper
improve
improvise
impulse
inaccessible
inactive
inadvertent
inaugural
inaugurate
inauguration
inca
incarcerate
incarnation
incense
incentive
inception
inch
incidence
incline
include
inclusion
inclusive
incoming
incompatible
incorporate
incorporation
incorrect
increase
incredible
incumbent
incur
independence
independent
index
india
indians
indicate
indicative
indicator
indices
indict
indictment
indie
indy
indifference
indifferent
indigenous
indigo
indirect
individual
indo
indoor
indoors
induce
induct
induction
indus
industrial
industry
ineligible
inevitable
infamous
infant
infantry
infect
infection
infectious
infer
inferior
inferno
infiltrate
infinite
infinity
infirmary
inflammation
inflammatory
inflate
inflict
influence
influenza
influx
info
inform
infra##
structure
infringe
infuse
ingredient
inhabit
inhabitant
inhabited
inhale
inherent
inherit
inhibit
initial
initiate
initiative
inject
injection
injunction
injure
injury
justice
innate
inner
inning
innings
innocence
innocent
innovate
innovative
organic
inquire
inquiry
inquisition
insane
sane
inscribe
inscription
insect
insert
inside
sight
insignia
significant
insist
insistent
##spect
inspection
inspector
inspire
stability
install
installment
instance
instant
instinct
institute
institution
instruct
instructor
instrumental
instrument
sufficient
insulate
insulin
insult
insurance
insurgency
insurgent
insurrection
intact
integer
integral
integrate
integrity
intel
intellect
intellectual
intelligence
intelligent
intend
intense
intensive
intent
intention
inter
inter##
intercept
interception
interchange
intercourse
interest
interfaces
interfere
interim
interior
interlude
intermediate
intermittent
intern
nation
internet
interpret
interpreter
interrogation
interrupt
interruption
intersect
intersection
intersperse
state
interval
intervene
interview
intimate
intimidate
intimidation
intra
intricate
intrigue
intrinsic
intro
introduce
introduction
introductory
intrude
intrusion
intuition
intuitive
invade
valid
variable
variant
invasion
invasive
invent
invention
inventor
inventory
inverse
inversion
vertebrate
invert
invest
vestigate
investigator
invincible
visible
invitation
invite
invoke
voluntary
involve
i##
irene
iris
ironic
irony
irrational
ir##
regular
relevant
resist
irrigation
irritate
irritation
isabella
isis
island
isle
isolate
iso##
##tope
issue
italic
item
iterate
ivan
ivory
jack
jacket
jacobs
jacques
jade
jag
jaguar
jail
jake
jamaica
jane
jasmine
jasper
java
javelin
jazz
jealous
jealousy
jean
jeep
jeff
jelly
jenny
jeopardy
jerk
jerry
jersey
jess
jessie
jewel
jewelry
jiang
jihad
jill
jimmy
jing
jingle
joanna
jock
##ey
jody
joey
jog
johannes
john
johnnie
johnny
johnson
join
joint
joke
jolly
jolt
jonathan
jones
jong
jordan
joseph
josh
journal
journalism
journey
juarez
jubilee
judas
judge
judicial
judiciary
judo
juice
julio
julius
jump
junction
jungle
junior
juniper
junk
junta
jupiter
juris
jurisdiction
jurisprudence
jurist
jury
justification
just
juvenile
kade
kaiser
kala
kali
kamal
kang
kangaroo
kappa
kara
karate
karen
kari
karl
karma
kata
kate
kazan
keel
keen
keller
kelly
kelvin
kemp
kendra
kent
kern
kernel
kettle
note
khalifa
khan
khyber
kick
kidney
kiev
kill
kilo##
kilometer
kilometre
kinase
kinda
kindergarten
kind
kinetic
king
kingston
kirby
kirk
kiss
kitchen
kite
kitten
klan
knee
knelt
knicks
knife
knight
knit
knob
knock
knockout
knot
know
knowledge
knuckle
kochi
kong
kraft
kris
kung
kyle
kylie
label
labor
laboratory
labour
labourer
labrador
labyrinth
lace
lack
lacrosse
ladder
laden
lady
lafayette
lagoon
laid
lair
laird
lake
lama
lamb
lambda
lambert
lame
lamp
lana
landau
lord
landscape
slide
lane
lang
langley
language
lantern
large
lark
larry
lars
larvae
laser
lass
last
latch
late
latin
latino
latitude
latter
lattice
laude
laud
laugh
laughter
launch
launder
laundry
laura
laureate
laurel
lava
lavender
lavish
lawn
lawson
suit
##yer
leech
lead
leaf
league
leak
lean
leap
leapt
lear
learn
leary
lease
leash
leasing
leather
leave
lecture
ledge
ledger
leed
left
legacy
legal
legend
leger
legion
legislate
legislator
legislature
legitimacy
lego
leigh
leisure
lemon
lend
long
lens
lent
leone
leopard
lesbian
lesion
less
lesson
lest
lethal
letter
leuko##
##aemia
levant
level
lever
levin
levy
lewis
lexie
lgbt
liable
liaison
liang
libel
liberal
liberalism
liberate
liberation
liberty
library
libre
libretto
licence
license
lick
lied
liege
lieu
lieutenant
span
lifting
ligament
ligand
lila
lilith
lilly
lily
lima
limb
lime
limerick
limit
limo
limousine
limp
lind
linear
linebacker
lineup
ling
linger
linguist
link
linux
lion
lionel
stick
liquid
liquidate
liquor
listen
lister
liter
literacy
literal
literary
literature
lithium
litigate
litre
litter
liturgical
liturgy
livelihood
liver
livery
stock
liza
lizard
lizzie
loaf
loan
lobby
lobe
lop
local
locate
loch
lock
locke
loco
locomotive
locus
lodge
loft
logan
logic
logistical
logistics
logo
logos
lombard
lone
longevity
longitude
look
lookout
loom
loop
loose
loot
lorraine
lose
loss
lottery
lotus
lough
louie
louis
lounge
louvre
love
lowe
lowry
loyal
loyalty
luce
lucifer
lucius
luck
lucrative
lucy
lug
luke
lullaby
lulu
lumber
luminous
lump
luna
lunar
lunatic
lunch
lung
lunge
lurch
lure
lurk
lush
lust
luxurious
luxury
lydia
lynch
lynx
lyon
lyric
lyrical
mace
macedonia
machinery
machine
macintosh
mack
macon
macro
madam
madame
madden
madeira
madeleine
madison
madonna
madras
maestro
mafia
magazine
mage
maggie
magic
magician
magistrate
magma
magna
magnate
magnesium
magnificent
magnitude
magnol
##ia
magnum
magnus
maha
mahal
maharaja
mahogany
maid
mail
maine
main
maintain
maison
maize
majesty
major
makeshift
makeup
mala
malaria
male
mali
malibu
malice
malicious
malik
malley
mall
malta
mama
mammal
mammoth
mana
manage
manchester
mandal
mandarin
mandate
mandatory
mandir
mandolin
mandy
mane
maneuver
manga
mango
mangrove
manhattan
mani
mania
manifest
manifesto
many
##fold
manila
manipulate
##kind
manner
manny
manor
mansion
mantel
mantra
manual
manufacture
manuscript
maple
mara
marathon
marble
marc
marcel
march
marcia
mare
margarita
marge
margin
marginal
marguerite
mari
maria
mariana
marie
marijuana
marina
marine
mariner
marital
maritime
market
marlin
maroon
marquess
marquis
marry
marrow
marsh
marshal
mart
martial
martian
martin
martini
martyr
maru
marvel
marvelous
marxism
mary
mascara
mascot
masculine
masjid
mask
mason
massacre
massage
massif
massive
mast
piece
mastery
mata
match
mater
material
maternal
maternity
mathematical
mathematician
mathematic
matilda
matrices
matrix
matte
matter
mattress
mature
maud
mausoleum
maverick
maxi
maxim
maximum
maximize
maximus
maxwell
maya
mayhem
mayo
mayor
mead
meade
meadow
meal
mean
meant
while
measure
meath
mecca
mechanic
mechanics
mechanism
mechanize
medal
medallion
media
medial
median
mediate
mediation
medicare
medication
medicinal
medicine
medieval
medina
meditation
mediterranean
medium
medley
meek
meet
mega
mein
melancholy
melee
melissa
mellon
melodic
melody
melt
melvin
member
membrane
memo
memoir
memorabilia
memorable
memorandum
memorial
memory
menace
meng
mental
mentor
menu
mercantile
mercenary
mercer
merchant
mercury
mercy
mere
merge
meridian
merit
meritorious
merlin
mer##
merry
mesa
mesh
mess
message
messenger
messiah
meta
metabolic
metabolism
meta##
metal
metaphor
metaphysical
meteor
meter
methyl
method
methodology
metis
metric
metro
metropolis
metropolitan
mets
mice
michel
mick
mickey
micro
micro##
##phone
microscope
##scope
##scopy
wave
mid##
middle
midi
midst
summer
west
migrant
migrate
migratory
mike
mild
mile
militant
military
militia
milk
mill
millennia
millennium
millie
millimetre
million
milo
mimic
myna
mind
mine
mineral
ming
mini
miniature
minimum
minimize
minion
mini##
series
minister
ministerial
minnie
minor
mint
minus
minute
mira
miracle
miraculous
mirage
mirror
mirza
miscellaneous
mischief
mis##
miserable
misery
miss
missile
mission
mist
mister
mistress
understand
misunderstood
mitch
mitochondrion
##a
tape
mixture
moan
moat
mobile
mobility
mobilize
mock
mode
model
moderate
moderator
modern
modest
modification
modify
module
##ar
mohawk
moist
moisture
mojo
mold
mole
molecule
mollusk
molly
molten
moment
momentum
momma
mona
monarch
mon##
##archy
monastery
monastic
monde
monetary
mongol
mongols
moniker
monitor
monk
monkey
mono
mono##
##graph
monopoly
mons
monsieur
monsoon
monster
monstrous
mont
montana
montane
monte
month
monty
monument
mood
moor
moose
mora
moral
morale
moran
over
morgan
mori
mormon
morning
morocco
morpho##
morris
morrow
morse
mort
mortal
mortar
mortgage
mosaic
mosque
mosquito
moss
most
motel
moth
motif
motion
motor
sport
motto
mound
mountain
mourn
mouse
mouth
move
movie
mozambique
mrna
muffle
mule
mull
multi
multi##
multiple
multiplicate
multiply
##tude
mumble
mummy
mundane
municipal
munition
munro
mural
murder
murderous
murmur
murphy
murray
muscle
muscular
muse
museum
mushroom
musica
music
musician
musik
musique
moustache
mustang
mustard
muster
mutant
mutation
mute
mutiny
mutter
mutual
muzzle
myriad
myrtle
myspace
mystery
mysterious
mystic
myth
mythological
mythology
naga
naive
naked
name
sake
nana
nancy
nanny
nano
nape
##kin
napoleon
narcotic
narrate
narration
narrative
narrator
narrow
nasal
nash
nasty
natal
##wide
native
natives
nato
natural
naturalize
nature
nought
nausea
navy
nave
navigable
navigate
navigator
nawab
nazi
neal
near
neat
nebula
necessary
necessitate
necessity
neck
nectar
need
needle
negative
neglect
negligence
negotiate
negotiation
negro
neighbor
neighborhood
neighbour
neighbouring
neither
nell
nellie
nelly
nelson
nemesis
neo##
neolithic
neon
nephew
nero
nerve
ness
nest
nether
neural
neuro##
neuron
science
neutral
##on
never
born
new##
newell
##cast
paper
newt
newton
nexus
nice
niche
nick
nickel
nickelodeon
nickname
nicky
niece
niger
stand
nil
nina
nine
ninja
ninth
nib
nippon
nirvana
nitrate
nitro##
##gen
noble
nobility
nocturnal
node
noel
noir
noise
nomadic
nomenclature
nominal
nominate
nomination
nominee
none
non##
profit
sense
stop
noodle
nope
nordic
norm
norma
norman
north
northeastern
northern
western
nose
nostalgia
nostril
notation
notch
##worthy
nothin
notice
notification
notify
notion
notoriety
notorious
with##
noun
nouveau
nouvelle
nova
novel
novella
novelty
novi
novice
novo
adays
nuclear
nuclei
nucleus
nude
nudge
nuevo
null
numb
number
numeric
numerous
nurse
nursery
nutrient
nutrition
nylon
oasis
oath
oaxaca
obedience
obesity
obey
obituary
object
objection
objective
oblast
obligation
obligatory
oblige
oblique
oblivion
oblivious
oboe
obscene
obscure
observe
observatory
obsess
obsession
obsidian
obsolete
obstacle
obstruction
obtain
obvious
occasion
occult
occupant
occupation
occupy
occur
ocean
ochreous
octa##
##gon
octave
octopus
odor
odyssey
offence
offend
offender
offense
offensive
offer
officer
office
official
off##
spring
##ie
olive
oliver
ollie
olympiad
omega
ominous
omit
omnibus
on##
onion
slaught
opaque
open
opera
operate
operative
opine
opinion
opium
opponent
opportune
oppose
opposition
oppression
oppress
optic
optimal
optimism
optimist
optimize
opus
oracle
oral
orange
orbit
orchard
orchestra
orchid
ordain
or##
ordinance
ordination
ordnance
organ
organisation
organise
organism
organize
orgasm
orient
oriental
origin
original
oriole
ornament
ornate
orphan
orthodox
ortho##
##doxy
orthogonal
oscar
ostensible
other
otter
otto
ottoman
ought
ounce
self
oust
out##
outdoors
post
reach
outside
skirt
spoke
stretch
outta
oval
oven
over##
overcame
overheard
oversaw
overseen
shadow
size
throw
overtook
overture
turn
view
whelm
oxford
oxidation
oyster
ozone
pace
pacific
package
packet
pact
paddle
paddy
padma
padre
pagan
pageant
page
pagoda
pain
paint
pair
paisley
pajamas
palace
palatine
palazzo
pale
palette
pali
palm
palma
palmer
palo
pamphlet
panchayat
panda
pandit
pandora
panel
pang
panic
panorama
pant
pantheon
panther
panty
pantry
pants
panzer
paolo
papa
papacy
papal
papua
papyrus
para
parachute
parade
paradigm
paradise
paradox
parallel
paralympic
paralysis
paralyze
parameter
para##
paramount
nous
paranoid
parapet
parasite
parc
parcel
parchment
pardon
parental
parentheses
paris
parish
park
parliament
parlor
parma
parochial
parody
parole
parrot
parry
parson
partial
participant
participate
particle
particular
party
partisan
partition
partner
partridge
pascal
pasha
paso
passage
passenger
passion
passionate
passive
pasta
paste
pastor
pastoral
pasture
patch
patent
paternal
path
pathetic
patho##
pathology
patient
patio
patri##
##arch
patriot
patriotic
patrol
patron
patsy
pattern
patti
patty
paul
paulo
pause
pave
pavilion
pawn
payne
roll
peace
peach
peak
peaked
pear
pearce
pearl
peasant
peat
pebble
peck
peculiar
pedal
pedestal
pedestrian
pedo##
##iatric
peek
peel
peer
pegasus
peggy
penal
penalty
pencil
pendant
pend
pendulum
penelope
penetrate
peng
penguin
peninsula
penis
penitentiary
pennant
penny
pension
penta##
penthouse
penultimate
people
pepper
pepsi
peptide
perceive
percent
percentage
perception
perch
percussion
pere
per##
perfection
perform
perfume
peri##
period
periphery
perish
permanent
permission
permit
perpendicular
perpetrate
perpetual
perry
persecute
persist
persistence
persona
personnel
perspective
persuade
persuasion
pertain
pest
petal
pete
peter
petit
petite
petition
petra
petrol
petroleum
petty
phantom
pharaoh
pharmaceutic
pharmacy
phase
phenomena
phenomenon
phil
philadelphia
philanthropic
philanthropy
philharmonic
philip
philippine
philology
philosopher
##sophy
phoebe
phoenix
phone
phonetic
phosphate
phosphorus
photo
photo##
photographic
phrase
phylo##
physical
physic
physician
physi##
piano
piazza
piccolo
pick
picket
picnic
pictorial
picture
##esque
piedmont
pier
pierce
pierre
pigeon
pigment
pike
pilaster
pile
pilgrim
pilgrimage
pill
pillar
pillow
pilot
pinch
pine
ping
pink
pinnacle
pinto
pinyin
pioneer
pious
pipe
piracy
pirate
piss
pistol
piston
pitch
pitches
pity
pivot
pixel
pizza
plague
plaid
plain
plaintiff
planet
plank
plan
plantation
plant
plaque
plasma
plaster
plastic
plate
plateau
platform
platinum
platoon
platt
plausible
playoff
wright
plaza
plea
plead
pleasant
please
pleasure
pledge
plenty
plight
plot
pluck
plug
plum
plumage
plumbing
plume
plump
plunge
plural
plus
plush
pluto
pneumonia
pocket
podcast
podium
poem
poet
poetic
poetry
pointe
poise
poison
poke
pole
police
policemen
policy
polish
polite
politic
polk
polka
poll
pollen
pollock
pollution
polly
polo
poly
poly##
##mer
##nomial
polytechnic
pomeranian
ponce
pond
ponder
pont
pontifical
pony
tail
pool
poor
popcorn
pope
poppy
pops
populace
popular
populate
population
populous
porcelain
porch
pork
porn
pornography
portable
portage
portal
porte
porter
portfolio
portico
portion
porto
portrait
portray
pose
position
positive
posse
possess
possession
possessive
possibility
possible
post##
postal
posterior
posthumous
postpone
season
posture
potassa
potato
potent
potion
pottery
pouch
poultry
pound
pour
poverty
practic
practice
practitioner
prairie
praise
prank
prasad
prat
pray
prayer
preach
precaution
precede
precedent
precinct
precious
precipitation
precise
precision
precursor
predator
predatory
predecessor
predict
predominant
preface
prefect
prefecture
prefer
prefix
pregnant
pre##
prejudice
prelate
preliminary
prelude
prem
premier
premiere
premise
premises
premium
prentice
prep
prepare
prequel
presbyter
school
prescribe
prescription
presence
present
preserve
preside
presidency
president
press
pressure
prestige
prestigious
presume
##ably
pretend
prevail
prevalence
prevent
previous
prey
price
prick
pride
priest
prima
primal
primary
primate
prime
primitive
prince
principal
principle
prior
priory
prism
prison
pristine
private
privatization
privilege
privy
prix
prize
probability
probable
probation
probe
problematic
problem
procedure
proceed
process
procession
proclaim
proclamation
proctor
procurement
prodigy
produce
production
productive
product
prof
profession
professor
proficiency
proficient
profile
profitable
profound
program
progress
progression
progressive
prohibit
prohibition
project
projectile
projection
projective
proliferate
prolific
prologue
prolong
prom
promenade
prominence
prominent
promise
promo
promote
promotion
prompt
prone
pronounce
pro##
pronunciation
proof
prop
propaganda
propagate
propel
proper
property
prophecy
prophet
proponent
proportion
proportional
propose
preposition
proprietary
proprietor
propulsion
prose
prosecute
prospective
prosper
prosperous
prostate
prostitute
prostitution
prot##
agonist
protect
protection
protector
protege
protein
protest
proto
protocol
proton
proto##
##type
protrude
proud
prove
provide
providence
province
provincial
provision
provisional
provocative
provoke
provost
prowess
proximity
proxy
psalm
pseudo
pseudo##
psyche
psychedelic
psycho##
##iatry
psychic
psycho
psychotic
public
publication
publish
puck
pudding
puddle
pueblo
puff
pull
pulmonary
pulp
pulpit
pulse
pump
pumpkin
punch
punish
punk
punt
punta
pupil
puppet
puppy
purchase
pure
purge
purification
purple
purport
purpose
purse
pursuant
pursue
pursuit
push
puss
puzzle
pyramid
python
qing
quad
quadrant
quaker
quality
quan
quantitative
quantity
quantum
quarrel
quarry
quartet
quartz
quasi
quay
queen
queer
query
quest
question
queue
quick
quiet
quilt
quintet
quiver
quiz
quota
quote
quran
rabbi
rabbit
race
track
racism
racist
rack
radar
radial
radiant
radiate
radical
radio##
radio
radius
raft
ragged
raid
rail
rain
raion
rajah
rake
rally
ralph
rama
ramp
rampage
##and
ranch
rancho
rand
random
randy
rang
range
rani
rank
rann
ransom
rape
rapid
rare
rash
rasp
rate
ratification
ratify
ratio
rational
ration
rattle
ravage
rave
raven
ravine
rayon
razor
re##
read
ready
realise
real
realm
reap
rear
reasonable
reason
rebel
rebellion
ous
rebound
rebuilt
receipt
receive
recent
reception
receptor
recess
recession
recipe
recipient
reciprocal
recite
reck
reckon
reclaim
reclamation
recognise
recognition
recognize
recoil
recommend
recommendation
reconcile
reconciliation
reconnaissance
record
recorder
recount
recover
recovery
recreate
recreation
recruit
rectangular
rector
rectory
recur
redd
redemption
skin
reduce
reduction
redundant
reed
reef
reel
ree
reeve
refer
referendum
reflect
reflection
reflex
reform
reformation
refrain
refrigerate
refuge
furbish
refusal
refuse
regaining
regal
regatta
regent
reggae
reggie
regime
regiment
regina
regional
region
regis
register
registrar
registration
registry
regress
regulate
regulatory
rehab
rehabilitation
rehearse
reich
reign
rein
reindeer
inforce
reiterate
reject
rejection
rejoin
relate
relative
relativity
relax
relay
release
relegate
relegation
relent
relevance
reliable
rely
relic
relief
relieve
religion
religious
relinquish
reluct
reluctant
remade
remainder
remain
remark
remedy
remember
reminiscent
remnant
remorse
remote
remove
renaissance
renal
render
rendezvous
rendition
renegade
reno
renovate
renovation
renowned
rent
repay
repeal
repeat
repertoire
repertory
repetition
repetitive
replica
replicate
replication
reply
report
repository
representation
representative
represent
repression
reprise
reproductive
reptile
republic
repulse
reputation
repute
request
requiem
require
rescue
research
semble
resent
resentment
reservation
reserve
reservoir
reside
residence
residency
resident
residential
residual
residue
resign
resin
resistant
resolution
solve
resonance
resort
resource
respect
respire
respond
respondent
response
responsible
responsive
start
restaurant
restore
restrain
restraint
restrict
resultant
result
resume
resurge
resurrect
resurrection
retail
retain
retaliate
retention
retire
retort
retract
retreat
retribution
retrieval
retrieve
retro
retro##
return
unification
union
unite
reveal
revelation
revenge
revenue
revere
reverend
reverse
revert
revise
revision
revisit
revive
revoke
revolt
revolution
revolutionary
revolve
revue
reward
rhapsody
rhea
rhetoric
rhine
rhino
rhone
rhyme
rhythmic
rhythm
ribbon
rice
rich
riches
rick
ride
rede
ridge
ridiculous
ridley
riff
rifle
rift
righteous
rigid
rigorous
rile
rink
riot
ripe
ripple
risk
rite
ritter
ritual
rival
river
roach
roam
roanoke
roar
roast
robbin
robe
robes
robin
robot
robust
roche
rocket
rode
rodent
rodeo
roger
rogue
rohan
role
rolf
roma
roman
romance
romanesque
romano
romant
rome
romero
romney
ronin
roof
rook
roost
root
rope
rory
rosa
rosary
rose
ross
rossi
roster
rotary
rotate
rotor
rouge
rough
round
about
route
routine
rover
rowan
royal
royale
rubbish
rubble
rubin
ruby
rudd
rudder
rude
rudy
rufus
rugby
ruin
rule
rumor
rune
rural
ruse
rush
rust
rustic
rustle
rutherford
ryder
sabbath
saber
sabha
sabine
sable
sabotage
sabre
sack
sacrament
sacred
sacrifice
saddle
safari
safe
safety
saga
sage
sag
sahib
sail
saint
sakura
salad
salary
sale
saline
saliva
salle
sally
salmon
salon
saloon
salsa
salt
salute
salvage
salvation
samba
sammy
sample
sampson
samson
samurai
sanction
sanctuary
sandal
sand
sandwich
sang
sanitary
sanitation
sank
sans
sant
santa
santo
santos
sapphire
sara
sarcasm
sarcastic
shash
saskatoon
satan
satellite
satin
satire
satisfactory
saturate
saturn
sauce
saul
saunders
sausage
savage
savanna
save
savior
savoy
saxe
saxophone
scala
scale
scalp
scan
scandal
scar
scarce
scare
scarf
scarlet
scatter
scenario
scene
scenery
scenic
scent
schedule
scheme
schizophrenia
scholastic
schooner
scientific
scientist
scissor
scoff
scoop
scoot
scope
scorpion
scotch
scotia
scot
scout
scouting
scowl
scramble
scrap
scrape
scratch
scream
screen
screw
script
scripture
scroll
scrub
scrutiny
scuba
scully
sculpt
sculptor
sculpture
seal
seam
seamen
sean
search
sear
secession
seclude
secondary
second
secrecy
secret
secretariat
secretary
sect
section
sector
secular
secure
sedan
sediment
seduce
seduction
seductive
seed
seek
seem
sega
segment
segregate
seine
seismic
seize
seldom
select
selection
selective
semantic
semantics
semester
semi
semi##
seminal
seminar
seminary
senate
senator
send
senior
sensation
sensible
sensitive
sensual
sentai
sentence
sentiment
sentinel
separate
sept
sequel
sequence
sera
serena
serene
serge
sergeant
serie
serious
sermon
serpent
serra
serum
serve
service
servicemen
sesame
session
seton
settle
seven
seventeen
seventeenth
seventh
severe
sever
sewer
sew
shack
shade
shaft
shag
shah
shake
shale
shallow
sham
shaman
shame
shamrock
shan
shanghai
shape
shard
share
sharif
shark
sharpe
sharp
shatter
shave
shaw
shay
shea
sheer
sheath
shed
sheen
sheep
sheet
sheik
sheila
shelf
shell
shelter
shelves
shen
sheng
sheriff
sherlock
sherry
shetland
shield
shift
skill
shimmer
shin
shine
shire
shirt
shiva
shiver
shock
shone
shook
shoot
shootout
shop
short
shoulder
shout
shove
##el
show
shower
shred
shriek
shrill
shrimp
shrine
shrink
shrub
shrug
shudder
shuffle
shut
shutter
siam
sick
siemens
sienna
sierra
sigh
sigma
sign
signal
signature
significance
signify
silence
silent
silesia
silhouette
silicon
silk
seel
silva
silver
sima
simi
similar
simon
simple
simplicity
simplify
simpson
simulate
simulcast
simultaneous
sincere
sing
singers
single
##ton
singular
sinister
sink
sino
sire
siren
sister
sitcom
site
situ
situate
sixteen
sixteenth
sixth
skate
skeleton
skeptic
sketch
skilled
skim
skip
skipper
skirmish
skull
skye
slab
slack
slade
slain
slalom
slam
slang
slant
slap
slash
slate
slaughter
slay
sleek
sleeve
slender
slept
slice
slick
slid
slight
slim
slip
slit
slogan
sloop
slope
slop
slot
slow
slug
slump
slung
smack
small
pox
smart
smash
smear
smell
smile
smiley
smirk
smoke
smooth
smug
smuggle
smyth
snack
snail
snake
snap
snare
snatch
sneak
sneer
sniff
snipe
snooker
snoop
snort
snout
snow
snuck
snug
soak
soap
soar
sober
soccer
social
society
societe
socio
sociological
sociology
sock
socket
soda
sofa
soft
soho
soil
solar
sold
soldier
sole
solemn
solicit
solid
solidarity
solitary
solo
solomon
soluble
solution
somber
some
someday
somerset
what
sonar
sonata
song
sonic
soon
soothe
sophie
sophisticate
sophomore
soprano
sorcerer
sore
sorority
sorrow
sorry
sort
soto
sought
soul
sound
soup
sour
source
sou
south
southeast
southern
sovereign
sovereignty
soviet
spacious
spade
spaghetti
spanish
spare
sparhawk
spark
sparrow
sparse
spartan
spat
spatial
spawn
speak
spear
spec
specialise
specialist
special
specialty
specie
specific
specification
specify
specimen
spectacle
spectacular
spectate
spectra
spectre
spectro##
spectrum
speculate
speculative
sped
speech
speed
spell
spence
spencer
spend
spent
sperm
spherical
sphinx
spice
spider
spike
spill
spin
spine
spiral
spire
spirit
spiritual
spirituality
spit
spite
splash
splendid
splint
split
spoil
spokesman
spokesperson
sponge
sponsor
spontaneous
spoon
sporadic
spore
spot
spouse
sprang
sprawl
spray
spread
sprint
spruce
sprung
spun
squad
squadron
square
squash
squat
squeak
squeal
squeeze
squid
squint
squire
squirrel
stab
stable
stack
stacy
stade
stadion
stadium
staff
stagger
stain
stake
stale
stalk
stall
stallion
stammer
stamp
stampede
stan
stance
alone
stanza
staple
starboard
stare
stark
starr
star
startup
starve
stat
static
station
statistic
statistics
stats
statue
stature
status
statute
staunch
stay
steady
steak
steal
steam
steel
steep
steer
stein
stella
stellar
stem
stench
step##
stephane
steppe
stereo
stereotype
sterile
sterling
stern
steve
steven
stew
sty
ward
stiff
stifle
stigma
still
stimulate
stimuli
stimulus
sting
stink
stint
stipulate
stir
stitch
stoke
stole
stomach
stomp
stool
storey
story
storm
tell
stout
stove
straight
strain
strait
strand
strange
strangle
strap
strata
strategic
strategy
straw
stray
streak
street
strong
stress
strewn
stricken
strict
stride
strife
strike
strikeout
string
strip
stripe
strive
strode
stroll
struck
struggle
strung
stryker
stubble
stubborn
stucco
stuck
stud
student
study
studio
stuff
stumble
stump
stung
stun
stunt
stupid
sturdy
sub##
subdue
family
subject
sublime
submission
submit
subordinate
subscribe
subscription
subsequent
subside
subsidiary
subsidy
subsistence
subsp
substance
substantial
substantive
substitute
substitution
substrate
subterranean
subtle
tropic
unit
suburb
suburban
succeed
success
succession
successive
successor
succumb
suck
sudden
suffer
suffrage
sugar
suggest
suggestion
suicide
suite
sulfur
sultan
summary
summit
summon
summons
sumner
sumo
sung
sunk
sunken
super
superb
super##
superficial
superintendent
superior
supernatural
supersede
supervise
supervision
supervisor
supervisory
supper
supplement
supplementary
supply
support
suppose
suppress
suppression
supreme
##acy
sure
surf
surface
surge
surgeon
surgery
surgical
surname
sur##
surplus
surprise
surreal
surrender
surrey
surround
surveillance
survey
survive
susan
susceptible
suspect
suspend
suspense
suspension
suspicious
sustain
##ability
sutra
swallow
swam
swami
swamp
swan
swap
swarm
swat
sway
swear
sweat
sweep
sweet
swell
swept
swift
swim
swing
swipe
swirl
swiss
switch
swollen
sword
swore
sworn
swung
sike
syllable
symbolic
symbol
symmetric
symmetrical
syn##
##meter
sym##
##pathy
##etic
##phony
symposium
symptom
synagogue
sync
synchronize
syndicate
syndication
syndrome
synod
syntax
synth
synthesis
synthetic
syrup
systematic
table
tablet
tabloid
taboo
tack
tackle
tactic
taekwondo
taft
tailor
taint
takeoff
talbot
tale
talent
talk
tall
tally
talon
taluk
taluka
tamara
tame
tammy
tandem
tang
tangent
tangible
tangle
tango
tank
tanya
tapestry
tara
target
tariff
task
taste
tata
tate
tattoo
taught
taunt
taut
tavern
taxa
taxi
taxis
taxon
taxo##
taylor
teach
team
tear
tease
tech
technical
technic
technique
techno
teddy
teen
teenage
teeth
tahsil
tele##
telecom
##gram
telegraph
telenovela
telephone
televise
temper
temperament
temperance
temperate
temperature
tempest
templar
template
temple
tempo
temporal
temporary
temp
tempt
tenant
tend
tendency
tennis
tenor
tense
tension
tent
tentacle
tentative
tenure
tequila
teresa
term
terminal
terminate
termination
terminology
terminus
terra
terrace
terrain
terre
terrestrial
terrible
terrific
terrify
territory
terror
terry
tertiary
tesla
testament
test
testify
testimony
testis
sterol
##one
texas
text
textile
textual
texture
thai
thank
thatch
theater
theatrical
thief
their
theme
##atic
them
thence
theo
theologian
theo##
theorem
theoretic
theory
therapeutic
therapist
there
therefore
thereof
thermal
these
thesis
theta
thick
thieves
thigh
think
thin
third
thirst
thirteen
thirteenth
thirty
thistle
thong
thor
thorough
thorpe
thou
thought
thousand
thrash
thread
threat
threaten
threshold
threw
thrill
thrilling
thrive
throat
throb
throne
thru
thrust
thud
thug
thumb
thump
thunder
thwart
thyroid
tian
tibet
tick
ticket
tide
tiffany
tiger
tight
tile
till
tilt
timber
timothy
tina
ting
tinge
tingle
tint
tire
tissue
titan
title
tit
titular
toad
toast
tobacco
toby
todd
to##
toilet
token
toledo
tolerance
tolerant
tolerate
toll
tomato
tomb
tome
tommy
tone
tong
tonga
tongue
tonight
tonne
tool
tooth
topic
topographic
topography
topology
torch
tore
tori
torment
torn
tornado
toro
torpedo
torque
torso
torture
tory
toss
total
touch
tough
tour
tournament
towel
tower
toxic
toxi##
##in
trace
tract
traction
tractor
trade
tradition
traffic
tragedy
tragic
trail
train
trait
traitor
trajectory
tram
tran
trance
trans
transaction
trans##
atlantic
transcribe
transcript
transcription
transfer
transform
transient
transit
transition
translate
translator
translit
translucent
transmission
transmit
transparent
transport
transverse
trap
trash
trauma
traumatic
travel
travers
traverse
travis
treacherous
tread
treason
treasure
treasurer
treasury
treat
treaty
treatise
tree
trek
tremble
tremendous
tremor
trench
trend
tres
trey
triad
trial
triangle
triangular
tribe
tribunal
tribune
tributary
tribute
trick
trickle
trident
trigger
trillion
trilogy
trim
trine
trio
triple
tripoli
trip
triumph
trivial
trois
trojan
troll
trombone
troop
trophy
trouble
trough
troupe
trousers
trout
troy
truce
truck
true
trump
trumpet
truncate
trunk
truss
tsar
tsunami
tuba
tuberculosis
tube
tubular
tuck
tuft
tuition
tumble
tumor
tuna
tune
tung
tunic
tunnel
turbine
turbo
turbulence
turbulent
turf
turkey
turmoil
turnpike
turquoise
turret
turtle
tutor
twain
tweed
twelve
twenty
##eth
twice
twig
twi##
twin
twink
twist
twitch
twitter
tyler
tyne
type
typhoon
typical
tyrant
tyre
tyrone
uber
ubiquitous
ug
ulster
ultimate
ultimatum
ultra
ultra##
violet
umbrella
umpire
un##
unanimous
canny
uncle
under
under##
undergone
underneath
understood
undertaken
undertaker
undertook
wear
underwent
world
done
unicorn
unify
uniform
unique
unison
unitary
unity
universal
universe
university
unix
unless
usual
veil
want
up##
upheld
upper
upscale
upside
uptown
uranium
urban
urge
urgent
urine
usable
usage
usher
utile
utilise
utmost
utopia
utter
vacancy
vacant
vacate
vaccine
vacuum
vague
vain
vale
valencia
valentine
valet
valiant
valkyrie
valley
valor
value
valuation
valve
vamp
vampire
vane
vanessa
vanguard
vanilla
vanish
vantage
vapor
variance
variation
vary
variety
various
varsity
vase
vassal
vast
vaudeville
vault
vector
vega
vegetable
vegetarian
vegetation
vehicle
vein
veloce
velvet
vendor
venerable
venge
venom
vent
ventilate
ventral
venture
venue
venus
vera
veranda
verb
verde
verdict
verge
verification
verify
verity
vernacular
veronica
versa
versatile
verse
version
versus
vertebrae
vertex
vertical
vertices
vertigo
verve
vessel
vest
veteran
veterinary
veto
viable
viaduct
vial
vibe
vibrant
vibrate
vicar
vice
viceroy
vicine
victim
victor
victoria
victory
victorious
video
vigor
vigorous
viii
viking
vila
vile
villa
village
villain
ville
vincent
vine
vinegar
vines
vintage
vinyl
viola
violate
violence
violent
violin
viper
virus
virgil
virgin
virtual
virtue
visa
viscount
visitation
visit
vista
visual
vita
vital
vitamin
vitro
viva
vivid
vivo
vocabulary
vocal
vocation
vodka
vogue
voice
void
voivodeship
volatile
volcano
volga
volley
volta
volt
volume
volunteer
vomit
voodoo
vortex
vote
vowel
voyage
vulcan
vulgar
vulnerability
vulnerable
vulture
wade
wadi
wage
wagon
wainwright
waist
wait
waive
waver
wake
waldo
wale
wall
wallet
wally
walnut
walsh
walt
walter
waltz
wand
wander
wang
wanna
warden
wardrobe
ware
warlock
warm
warn
warp
warrant
warren
warrior
warsaw
wash
wasp
waste
watch
watt
weak
weapon
weary
weasel
weather
weave
weber
webster
wedge
weed
week
weep
weigh
weir
weird
weiss
welch
weld
wellington
welsh
welt
wendy
were
were##
wolf
werewolves
westward
whale
wharf
wheat
wheel
whenever
where##
upon
which
whig
wimp
whip
whirl
whiskey
whisky
whisper
whistle
white
whoa
whom
whore
whorl
wicked
wicket
widow
wield
wiener
wigan
wiggle
wight
wikipedia
wild
wilderness
william
willow
wince
wind
window
wine
winged
wink
winter
wipe
wire
wise
wish
witch
##craft
withdraw
withdrawn
withdrew
wife
woke
wolfe
wolverine
womb
wonder
wong
wool
wore
worm
worn
worry
worse
worth
worst
wound
woven
wrath
wreath
wreck
wren
wrench
wrest
wrinkle
wrist
writ
writhe
wrong
wrought
wylie
wynn
xiao
xiii
yacht
yahoo
yale
yang
yank
yankee
yarn
yate
yawn
yeah
year
yearn
yeast
yell
yellow
yemen
yeoman
yeshiva
yester##
yield
ying
yoga
yong
yoon
york
yorker
young
your
yuan
yuki
yuri
zack
zebra
zenith
zeppelin
zero
zeta
zhang
zheng
zhou
zimbabwe
zinc
zion
zionist
zodiac
zombie
zone
zoo##
zoom
above
across
adjective
afraid
again
against
ahead
almost
already
also
although
always
among
another
arms
around
became
because
been
began
behind
below
better
between
both
bought
bread
brought
built
came
cannot
cattle
caught
clothes
corn
cotton
could
decimal
dictionary
difficult
does
during
each
either
english
enough
especially
except
feet
fell
felt
fraction
french
from
gave
gone
grew
heard
here
however
into
iron
japan
kept
knew
least
little
lost
maybe
meat
money
much
must
next
nothing
often
once
only
opposite
oxygen
paragraph
past
perhaps
picked
pretty
probably
quite
rather
said
same
sent
several
shall
should
since
someone
stood
such
suffix
than
that
then
they
this
those
though
three
thus
tiny
today
told
took
until
very
went
when
whether
whose
with
within
without
woman
women
would
wrote
american
june
september
july
january
october
april
november
december
british
february
london
james
england
george
david
france
america
european
australia
california
mr
thomas
robert
michael
germany
indian
charles
australian
russian
europe
japanese
washington
richard
canadian
christian
italian
african
africa
ireland
chicago
mexico
italy
angeles
zealand
virginia
edward
irish
pennsylvania
spain
russia
jewish
scott
mrs
britain
boston
poland
williams
chris
olympics
francisco
elizabeth
scotland
israel
jim
sydney
columbia
asian
asia
jackson
ohio
alex
andrew
scottish
georgia
michigan
adam
christmas
iran
wilson
arthur
illinois
toronto
olympic
massachusetts
korea
fc
jesus
stephen
jason
sunday
swedish
davis
pakistan
sarah
francis
jose
ontario
ryan
sweden
persian
cambridge
patrick
korean
ian
anne
albert
americans
ali
kevin
mexican
howard
moscow
anthony
melbourne
antonio
kim
turkish
norwegian
portuguese
saturday
kansas
austria
norway
minnesota
philippines
anderson
gordon
vietnam
muslim
ltd
tim
samuel
clark
indiana
singapore
wisconsin
egypt
missouri
switzerland
allen
tennessee
queensland
arizona
juan
hollywood
lincoln
maryland
oregon
houston
moore
frederick
arab
quebec
matthew
islamic
tokyo
margaret
montreal
czech
rachel
hungarian
israeli
kentucky
lawrence
detroit
miami
gary
alice
christopher
belgium
iraq
fifa
russell
eddie
dallas
harvard
dublin
louisiana
kennedy
carlos
denmark
oklahoma
seattle
atlanta
hungary
austin
mississippi
adams
ukraine
edinburgh
iowa
thompson
stewart
friday
singh
fred
ukrainian
portugal
orleans
puerto
vienna
tamil
malaysia
alabama
cleveland
campbell
ethan
connecticut
gabriel
nicholas
brazilian
alfred
stanley
robinson
wayne
austrian
jamie
jacob
liverpool
donald
baltimore
indonesia
emily
danny
pittsburgh
jon
lucas
helen
romania
disney
mitchell
sebastian
julia
julian
finland
luis
evans
birmingham
thailand
leon
serbian
neil
brooklyn
catherine
hugh
taiwan
utah
marcus
victorian
seth
uefa
harrison
richmond
connor
jerusalem
lloyd
arkansas
greg
keith
delhi
glasgow
justin
egyptian
hebrew
hudson
amy
dennis
madrid
monday
vancouver
zane
milan
finnish
stuart
belgian
hans
yorkshire
islam
roberts
hampshire
afghanistan
rico
romanian
lisa
freyja
ain
caribbean
nathan
harold
muhammad
clinton
beijing
andre
cameron
serbia
noah
lanka
derek
bangladesh
owen
gregory
peru
eu
duncan
hawaii
adelaide
colombia
edwards
nigeria
cuba
joan
garcia
jeremy
munich
muslims
armenian
microsoft
isaac
hindu
athens
denver
amsterdam
barcelona
sullivan
jefferson
jesse
julie
raymond
bulgarian
alberta
jennifer
florence
harvey
pedro
olivia
brisbane
leonard
iranian
dakota
norfolk
nevada
dylan
manuel
arnold
syria
cincinnati
wallace
sa
youtube
watson
venice
adrian
kenya
croatian
pradesh
mario
br
christianity
trent
buddhist
maurice
liga
hitler
petersburg
bulgaria
phd
bennett
cruz
croatia
hughes
shakespeare
phillips
obama
christians
newcastle
claude
ottawa
francois
saudi
abraham
jessica
eugene
nepal
louise
liam
nate
berkeley
roland
abu
amanda
venezuela
jared
lebanon
clarke
azerbaijan
miguel
stanford
nashville
delaware
kane
preston
montgomery
nebraska
linda
panama
bryan
sheffield
ellis
roosevelt
liu
della
prague
andrea
auckland
trevor
shane
lopez
santiago
vladimir
sofia
doug
chen
quinn
diana
brandon
vermont
stefan
kenneth
malcolm
essex
marco
leslie
kenny
friedrich
columbus
ronald
allan
kerala
yugoslavia
stockholm
mumbai
iraqi
joel
franz
palestine
bradley
powell
indonesian
monica
reid
casey
syrian
liz
elena
wilhelm
vietnamese
md
joshua
giovanni
armstrong
fernando
playstation
georgian
rodriguez
princeton
oakland
milwaukee
brunswick
curtis
buenos
punjab
martha
andrews
arabia
hindi
nasa
chelsea
durham
perth
palestinian
wednesday
chloe
ashley
evan
mcdonald
miranda
michelle
hugo
lynn
gibson
albanian
rebecca
thursday
westminster
anglican
fraser
gavin
abby
newport
glenn
nicolas
katherine
henderson
richardson
edmund
penn
sussex
indianapolis
bosnia
reynolds
edgar
kumar
lancashire
dante
gerald
milton
copenhagen
sophia
garrett
luther
kurt
ferdinand
richards
cyprus
katie
monroe
carlo
rhode
memphis
idaho
carson
whitney
geneva
tristan
lithuania
brien
nicole
tuesday
anton
pakistani
elliott
jackie
robertson
tampa
moses
barnes
morrison
istanbul
janet
oslo
dorothy
bradford
nintendo
uganda
lutheran
saxon
edwin
xavier
windsor
saskatchewan
emmy
dominican
orlando
armenia
calgary
marion
theodore
gonzalez
ji
cardiff
winston
caleb
zurich
ahmed
plymouth
lou
lancaster
hopkins
erik
helena
filipino
albany
notre
belgrade
lauren
alexandria
abdul
ludwig
wagner
slovenia
brighton
boeing
belfast
lithuanian
martinez
jace
frances
ecuador
cornwall
salem
bruno
iceland
macdonald
albania
sudan
angela
halifax
alexandra
ari
springfield
blair
eleanor
manitoba
su
edmonton
rochester
rao
naples
crawford
tracy
sanchez
hanna
salvador
rhodes
wyoming
newman
meredith
sharon
jonas
estonia
nadu
ellie
patricia
nacional
tu
prussia
ernst
perez
rene
prussian
luxembourg
fe
norton
johnston
catholics
ahmad
allison
mercedes
jeffrey
forbes
natalie
phillip
mann
georges
krishna
shannon
laurence
seoul
churchill
romans
portsmouth
cornell
webb
americas
budapest
conrad
christine
ra
baldwin
pr
slovakia
rafael
sherman
geoffrey
dawson
jules
burma
gerard
thames
yankees
hal
winnipeg
cairo
jenkins
jerome
calvin
ethiopia
thomson
morton
agnes
philippe
sutton
ricky
gaelic
ira
leipzig
boris
leicester
kerry
ferguson
bengali
shirley
dominic
doyle
nixon
carnegie
hammond
percy
damon
mikhail
nottingham
minneapolis
algeria
munster
sanskrit
dixon
buddhism
mackenzie
samantha
wei
sidney
vernon
herzegovina
herman
fiji
wesley
kosovo
stephanie
janeiro
rica
neill
meyer
mae
reagan
beatles
dubai
louisville
deutsche
bavaria
coleman
hampton
rita
pablo
isabel
augustus
ronnie
gwen
ella
ga
uruguay
syracuse
toyota
elliot
gardner
kazakhstan
constantinople
guatemala
erin
carey
jung
clayton
joyce
bombay
southampton
malaysian
trinidad
fitzgerald
sinclair
nigerian
levi
lisbon
sacramento
madagascar
newfoundland
tibetan
tanzania
knox
benson
peterson
bedford
eli
davidson
fernandez
estonian
mohammad
sicily
bart
aberdeen
diane
clyde
chilean
karnataka
lindsay
vatican
bolton
judy
europa
gideon
avery
vince
boyd
telugu
hawaiian
baden
xbox
roth
beverly
hermann
byron
chennai
angelo
darren
gibraltar
elvis
robbie
suffolk
yugoslav
floyd
nora
cumberland
helsinki
lucia
gandhi
tasmania
matthews
romeo
zach
irving
patterson
latvia
maharashtra
va
antoine
urdu
andreas
bryant
lorenzo
adolf
russians
diaz
worcester
belarus
raphael
klein
rey
reyes
qatar
marty
jude
mccarthy
damien
lebanese
maori
malay
mohammed
myanmar
bangkok
emerson
norwich
aidan
dudley
christina
gus
alison
brittany
willis
barrett
eurovision
ramon
aviv
donovan
cu
slovak
leopold
weston
megan
horace
constantine
gomez
naomi
randall
nigel
czechoslovakia
sandra
winchester
omaha
haiti
exeter
steele
pearson
elisabeth
turks
cambodia
gabe
evelyn
libya
anita
judith
schmidt
josef
newark
cao
zagreb
georgetown
dresden
wyatt
carlton
ip
malayalam
osaka
montenegro
saxony
stuttgart
randolph
macedonian
fischer
jacksonville
fiona
kuwait
johan
gil
torres
canberra
feb
jax
stalin
tessa
cerambycidae
mozart
nielsen
omar
shawn
hassan
eliza
sheridan
baha
seymour
edith
flynn
camden
warwick
melanie
giles
normandy
cody
hansen
kashmir
gloucester
erie
sylvia
hartford
albion
nolan
wimbledon
gustav
tunisia
higgins
ibrahim
claudia
europeans
viktor
angola
tehran
jenna
marx
kolkata
bermuda
ricardo
alexis
carlisle
alfonso
colombian
perkins
coventry
hyderabad
ferrari
stevenson
rican
harley
middlesex
turin
simmons
lara
angus
hernandez
juliet
paula
judaism
cassidy
amos
marvin
arabian
ashton
waterloo
cheshire
cherokee
vivian
salisbury
burnett
hawkins
slavic
jesuit
cameroon
hancock
myers
greenwich
wolfgang
nikolai
hayden
kannada
reilly
paraguay
clifford
rodney
mongolia
rhys
nord
arlington
blackburn
isabelle
baghdad
nathaniel
brennan
ku
catalan
dover
flanders
antwerp
taipei
hobart
wes
bangalore
icelandic
basel
marian
rivera
augustine
elijah
andhra
simone
abdullah
jennings
livingston
werner
lester
griffith
courtney
dunn
audrey
leah
harriet
lena
bundesliga
elise
dundee
bucharest
valerie
sutherland
suzuki
crosby
gujarat
walton
lennon
thorne
dwight
bert
williamson
buchanan
rahman
galway
honduras
devi
hanover
pac
richie
halloween
cara
jakarta
reginald
olivier
abbott
emmanuel
vaughan
denny
mohamed
burmese
nikki
gaza
una
bronx
monaco
kendall
jaime
lexington
jeanne
sergei
kathleen
dane
hague
krakow
elias
dillon
renault
thornton
esther
ernie
rupert
nassau
sharma
igor
sasha
mayer
latvian
dayton
somalia
laurent
leonardo
chevrolet
marilyn
bon
cannes
theresa
conway
rae
royce
sundays
beatrice
marcos
owens
angie
jensen
darius
harlem
neville
shri
kerr
geoff
cesar
gerry
byrne
uttar
nadia
kathy
browne
kyoto
boone
lahore
stephens
mba
brendan
okinawa
stafford
samoa
aiden
pitt
ramsey
ethiopian
hoffman
jenks
nam
lola
suzanne
schneider
everett
kira
nile
assam
bahrain
ramirez
derbyshire
zeus
meyrick
callum
langdon
truman
koch
ada
havana
josie
shelby
frederic
elle
mccartney
venezuelan
beirut
denise
norse
hubert
mansfield
dorset
karachi
anders
namibia
jen
peruvian
macmillan
ipswich
nicaragua
harding
beethoven
humphrey
norris
doris
niagara
hilton
briggs
kuala
brenda
venetian
marxist
sunderland
lowell
cyrillic
freddie
tess
pietro
burlington
kurdish
deborah
berkshire
olga
domingo
tudor
pauline
stirling
paralympics
luca
carolyn
andres
jonah
belarusian
rotterdam
zambia
zhao
rodgers
gibbs
leinster
phillies
constance
smithsonian
louisa
australians
nichols
laos
cynthia
lois
rafe
rosie
shelley
cindy
busch
raleigh
stanton
christchurch
reese
gloucestershire
archibald
leningrad
alicia
bernie
northampton
dimitri
michele
stephan
quentin
johannesburg
bentley
senegal
bollywood
cyril
mccoy
swansea
dorian
ida
porsche
lexi
josephine
cyrus
greenland
avon
townsend
quincy
aragon
lankan
guam
bosnian
bihar
arte
northumberland
bowen
beaumont
danube
ge
colombo
mckay
wilkinson
merrill
emil
sonia
ezra
farrell
antony
clifton
irvine
eliot
torah
aden
alvarez
bremen
forrest
malone
kramer
huntington
debbie
nagar
hesse
marin
pu
strauss
brandenburg
fallon
ceylon
laurie
chandra
dhaka
cho
canadians
declan
nissan
caucasus
toni
klaus
wembley
taiwanese
hussein
cooke
eisenhower
granada
bethany
wii
nguyen
hubbard
slovenian
caldwell
bern
taliban
honolulu
conan
sioux
haley
lincolnshire
tulsa
atlantis
oman
une
breton
persia
vance
camille
rockefeller
izzy
catalonia
raul
chatham
osborne
lagos
schwartz
serbs
berger
cromwell
marseille
abel
moldova
italians
heidelberg
ravi
baku
alejandro
rajasthan
somali
shaun
tobias
chavez
katrina
joaquin
macau
siberia
barbados
pune
miriam
guerrero
allie
sainte
zu
austro
algerian
nicholson
dartmouth
db
regan
gregor
madeline
gabrielle
sgt
sami
russo
wilmington
vijay
paige
wiltshire
edison
fulton
staffordshire
watkins
uzbekistan
vanderbilt
carla
mackay
bahamas
olympia
emile
kapoor
kilkenny
jain
trenton
aus
hutchinson
marino
cora
connell
toulouse
pamela
presley
sikh
tobago
vicente
joachim
reuben
gallagher
asa
jericho
guinness
cb
baptiste
tipperary
flores
alvin
cornelius
gao
nicola
bahn
natasha
renee
jai
oswald
mortimer
shankar
blackpool
belmont
stevie
tucson
aristotle
salvatore
habsburg
moroccan
rosario
lenin
punjabi
erich
irwin
lindsey
jeremiah
jacqueline
grayson
riga
sloane
balkan
peterborough
dickinson
rwanda
lan
mclean
pulitzer
eaton
vishnu
alonso
heinz
scandinavian
micah
ke
ak
chrysler
macarthur
stratford
luftwaffe
mcmahon
middleton
lumpur
goldman
waterford
benz
kensington
cheyenne
levine
michaels
barlow
maddie
luton
charlton
fairfax
buckingham
bauer
snyder
byrd
jamaican
mongolian
katy
mughal
matthias
ngo
buckley
mcgill
moreno
api
peyton
adler
duffy
mauritius
donnell
celia
mendoza
everton
liberia
bianca
isa
russ
africans
patton
andes
strasbourg
centro
tottenham
corey
malawi
choi
dusseldorf
dominique
laguna
shrewsbury
greco
billie
lucian
vaughn
hindus
daytona
godfrey
sumatra
zeke
gregg
oldham
cathy
andersen
edo
poznan
azerbaijani
slovene
versailles
ahl
sarajevo
utrecht
nike
salzburg
ligue
marathi
addison
warwickshire
carly
shu
cecilia
rudolph
horton
howell
friedman
danielle
dracula
mckenzie
daly
hillary
goldberg
mohan
cypriot
silas
maltese
vickers
wilde
gail
mclaren
compton
scarborough
rutgers
como
burt
wichita
jase
pomerania
ronan
pavel
atkinson
clarkson
colby
qaeda
geelong
lori
benton
brunei
guangzhou
nh
palermo
croix
gertrude
orion
cheltenham
bhutan
ruiz
blackwell
guyana
len
lao
napoleonic
volkswagen
wiley
titus
maximilian
isaiah
potomac
plato
saturdays
bernstein
belize
pasadena
ramos
sunni
anand
hertfordshire
doncaster
otis
sar
marta
mcbride
aubrey
lublin
avalon
seville
fairfield
olsen
gracie
grady
galicia
sloan
simpsons
artemis
lenny
antioch
philips
samsung
leroy
poole
jakob
crete
mig
claus
elton
willard
stockton
paterson
vlad
selena
maureen
mccain
ismail
bridget
libyan
faye
humboldt
drummond
julien
caledonia
shropshire
mateo
nico
albuquerque
freud
freddy
lillian
nuremberg
calder
bonn
vin
tyson
bethlehem
kahn
ryu
sheldon
castillo
gunther
brandt
pena
botswana
franciscan
sherwood
cheryl
thom
ortiz
anastasia
ramsay
ruben
khmer
zachary
hewitt
mabel
baja
damian
dani
libby
plata
minh
dion
kelley
novak
sahara
stefano
ulrich
hitchcock
hinduism
sinatra
darlington
appalachian
mustafa
odessa
mitsubishi
kellan
viet
rothschild
huddersfield
balkans
mei
syed
timor
purdue
lamar
bryce
harrington
halle
layla
stephenson
barr
vida
amherst
wesleyan
monterey
bartholomew
mainz
caine
marianne
yukon
bryn
provence
cullen
goodwin
norte
boer
assyrian
guthrie
murdoch
malaya
jurassic
stacey
blaine
peabody
sylvester
knoxville
janice
marius
leicestershire
collingwood
frey
callie
barnett
bartlett
wolverhampton
hussain
larsen
richter
yiddish
colchester
oxfordshire
nottinghamshire
judd
helene
melville
hiroshima
garfield
valle
serb
verona
worcestershire
bali
putnam
gareth
genevieve
sato
georgie
sindh
jesuits
oro
dewey
parkinson
ankara
marley
phyllis
leiden
armenians
rhodesia
fremantle
hume
armand
loire
guggenheim
ritchie
hutton
emilia
pokemon
cadillac
kenyan
monmouth
davey
ursula
silesian
patel
mallory
susannah
winkler
shia
phelps
kathryn
federico
mathias
eileen
yokohama
gupta
vilnius
olaf
crimean
oceania
rowe
rowland
conor
vargas
wentworth
verdi
bertrand
beckett
semitic
scandinavia
wilkes
landon
hendrix
morley
espana
weimar
tito
prescott
katz
bertie
crowley
cummings
ciudad
mysore
lucan
henrietta
ely
juno
maddy
minsk
nino
transylvania
hokkaido
bonaparte
gutierrez
sinai
bram
fresno
madhya
wanda
scarlett
baird
chesapeake
ir
netflix
macy
kiel
greenville
chun
sichuan
ro
spaniards
colton
kelsey
dora
costello
connolly
fergus
woodstock
edna
lennox
galen
gillespie
rosenberg
jarvis
kabul
volvo
atkins
hyun
nairobi
brasil
emanuel
hereford
benedictine
gardiner
rb
ventura
sanford
santana
benin
neptune
tallinn
schleswig
sweeney
routledge
allegheny
aziz
larson
alexei
seneca
houghton
bogota
sparta
navarre
steiner
czechoslovak
guangdong
haifa
whitman
forster
napier
sadie
internationale
lal
lakshmi
lau
northamptonshire
tal
bernardino
heidi
tasmanian
lange
massey
haitian
gemini
acheron
bernhard
jammu
manson
vuelta
bala
nanjing
pembroke
elmer
handel
johanna
garry
ellison
crimea
natalia
palestinians
dolores
sarawak
marjorie
loyola
tabitha
olson
crambidae
ljubljana
hilda
sardinia
yunnan
linnaeus
akira
luzon
gretchen
ellington
easton
rhineland
jul
middlesbrough
hailey
caracas
hadley
yvonne
eton
buckinghamshire
gilles
benoit
anya
westwood
skyla
watford
mckenna
gladstone
ru
edmond
hampson
haynes
penang
siberian
khalid
tanaka
otago
graeme
sufi
styx
lund
fitzroy
sas
odisha
sabrina
spokane
athena
niall
bangor
ballard
bathurst
huron
alzheimer
braun
gdansk
carthage
griffiths
lyle
suez
iberian
hepburn
mecklenburg
dunedin
mcgee
torre
astros
tokugawa
putin
dickson
gunn
rashid
ingrid
nokia
kamen
hz
delaney
mckinley
hamas
maynard
liv
becca
dmitry
keynes
ngos
rana
erwin
carlson
shelton
prakash
cantonese
schumacher
lausanne
barnard
carleton
lansing
chinatown
jameson
catalina
cochrane
noelle
iona
swindon
rockies
schultz
gladys
betsy
kiran
tbilisi
ernesto
kristen
navajo
layne
picasso
montevideo
stamford
lille
newmarket
daryl
sabah
annette
nair
maclean
harlow
goddard
fremont
suarez
mussolini
gettysburg
sicilian
radcliffe
medici
petersen
milford
kilda
motown
ebert
terence
pyrenees
sergey
harcourt
guo
tatiana
brigham
maddox
akron
hilary
wilkins
marissa
jae
faso
wien
ulysses
guzman
jimenez
norwood
gotham
knowles
sachs
kingsley
parramatta
darryl
mor
marlborough
gothenburg
vicky
dupont
pd
yun
neumann
freiburg
bournemouth
turk
guadalajara
turkic
inverness
dia
tunisian
algiers
rus
bloomberg
westphalia
tacoma
duran
jett
aleppo
tc
calhoun
kaplan
bratislava
haas
gilmore
salford
delilah
iroquois
myra
judah
mcgregor
burnley
markus
dunbar
lyndon
warrington
fargo
hua
macleod
burkina
guantanamo
layton
muir
calais
wexford
hellenic
gabon
saratoga
mcdonnell
fran
dhabi
musa
darrell
thessaloniki
donaldson
achilles
jurgen
goethe
boise
ferris
ogden
amar
nik
kyrgyzstan
mccormick
meiji
mcgrath
khorasan
bengals
ingram
lehigh
texans
haryana
moines
mathews
cebu
tuscany
ito
jana
chattanooga
yerevan
eurasian
adriatic
chichester
ev
nepali
egyptians
hawthorne
wehrmacht
welles
elsa
roberta
joanne
uruguayan
sirius
maia
wolff
rollins
herr
martina
ptolemy
lauderdale
navarro
herrera
guadalupe
carmichael
tajikistan
aimee
nehru
guiana
lucknow
barron
benito
caden
devin
tolkien
ck
beaufort
lazarus
kurdistan
malmo
mindanao
bragg
roxy
munoz
kaye
deportivo
robson
kaufman
masovian
yao
claremont
mclaughlin
melinda
barclay
kimberly
lukas
shreveport
veracruz
cheney
anatolia
hobbs
alistair
siena
bradshaw
telangana
vinci
jang
jocelyn
maris
elgin
doherty
lviv
scientology
angelina
kota
glamorgan
agatha
fleetwood
mcguire
macquarie
denton
dortmund
everest
susie
lesley
wilcox
colbert
duval
ives
baylor
woodrow
nt
nakamura
romani
asiatic
magdalena
havilland
saigon
faust
ewing
hungarians
wallis
hagen
dorothea
maccabi
helens
sui
montenegrin
packard
syriac
saddam
kobe
corbett
jaya
delle
hermes
jamal
antrim
loki
juliana
johnstone
staten
austen
mcgraw
hannibal
aquino
christensen
greenberg
jem
cambridgeshire
eastwood
ghent
qu
vinnie
anglia
marquette
reece
bharatiya
rooney
wharton
eastman
fairchild
dona
parisian
ia
hahn
bangladeshi
antonia
kildare
harlan
grimm
spartans
narayan
mcpherson
gonzales
dustin
novgorod
ashland
carole
pendleton
augsburg
auschwitz
simeon
milne
talmud
devlin
rourke
jed
jayne
cambodian
metz
nagoya
hoffmann
josiah
grimsby
iain
alf
kerman
jarrett
saharan
kincaid
luciano
wendell
mach
nueva
karin
pontiac
leto
bergman
celine
mcintyre
tarzan
harrisburg
belinda
bingham
cuthbert
casablanca
casper
elsie
shapiro
tirana
schubert
stu
koreans
fei
jimmie
britannia
armagh
geometridae
juliette
guerra
casimir
clapton
annabelle
vu
torino
winfield
severn
calvert
hanoi
hamid
walden
coe
voss
hawke
annapolis
noctuidae
erika
willoughby
alsace
granville
padua
barrie
berwick
alexa
aquitaine
sheppard
concordia
montrose
seamus
kimberley
mcdowell
claudius
orson
durban
suriname
maldives
pleistocene
raju
disneyland
menon
mannheim
kristin
barnsley
somme
astor
orton
inuit
macbeth
priscilla
trieste
ike
roi
ripley
rockwell
grover
englishman
aztec
falkland
clarissa
albanians
johor
remington
mazda
burnham
italianate
salazar
tunis
esq
villiers
isla
kendrick
sy
kidd
mcleod
pretoria
nantes
nestor
donegal
hearst
vicki
bilbao
turkmenistan
anson
mathew
rihanna
hines
kenton
tasha
mildred
karim
pisa
westchester
cerro
goldstein
maitland
bellamy
harmon
brianna
cumbria
thayer
larkin
bloomfield
takahashi
ringo
haydn
gershwin
molina
sudanese
bret
mx
rochelle
crowe
wellesley
callahan
kyiv
emmett
gorman
adventist
amman
hezbollah
uppsala
tully
katharine
zaragoza
fontaine
shandong
rankin
mccall
enfield
marne
vedic
emory
marlon
keating
jia
erebidae
columbian
kyushu
mahmud
mesopotamia
caspian
kenji
tchaikovsky
xinjiang
clemson
kazakh
tatum
bosch
greer
ioc
siegfried
olympian
hyundai
tracey
mundo
burroughs
mikey
springsteen
sylvie
antigua
arjun
wilfred
aryan
leung
eritrea
kant
appleton
pensacola
bolivian
nasser
southend
hodgson
rochdale
greta
scranton
kellogg
ferreira
arya
gottfried
dina
wilbur
frankish
cedric
canucks
dail
monique
odin
maguire
markham
tierney
laval
robb
tianjin
enzo
ric
croats
arden
alam
montagu
fitzpatrick
dubois
ste
liszt
jordanian
stockport
albans
paddington
reza
trondheim
ivanov
keenan
cadiz
carpathian
guildford
susquehanna
williamsburg
bayer
bloomington
alton
justine
newtown
peugeot
evie
sinn
wilton
tb
gujarati
purcell
turnbull
alyssa
gestapo
johansson
barrington
planck
sudbury
marriott
kayla
radha
liechtenstein
gaul
frenchman
ashford
brentford
frazier
dunne
potsdam
shenzhen
flanagan
dinah
quezon
terri
westfield
fridays
souza
winslow
gogh
galveston
godzilla
joshi
sonora
manchu
kimball
karlsruhe
reuters
danzig
kei
susanna
fulbright
sikhs
merritt
gambia
olympus
bellevue
hartman
socrates
mueller
himalayas
asturias
zhejiang
erasmus
ignatius
monterrey
bryson
pei
hatfield
rousseau
blanchard
leighton
corinne
hiroshi
mandela
agustin
magdalene
bea
trafford
fourier
upton
camilla
islamabad
feldman
orr
graz
marlene
miocene
lynne
athenian
deng
geraldine
babylonian
fukuoka
osborn
kia
whitley
lina
rouen
mukherjee
nicholls
corsica
whitaker
indochina
myles
peking
connacht
vogel
pickering
anhalt
fenton
nagasaki
ina
wrexham
moshe
winnie
adi
leland
erskine
toulon
yue
cn
fontana
amadeus
nazareth
tyrol
aegean
ghanaian
somerville
leyte
oder
timmy
mayfield
henson
keane
persians
benji
braden
ahmedabad
dorchester
islamist
charlemagne
unicode
messina
jedi
clemens
mahmoud
jillian
hemingway
fordham
copeland
beatty
leonid
duane
marquez
kawasaki
concepcion
dorsey
javanese
georgina
zulu
chiba
hunan
astrid
malaga
minerva
pedersen
hiram
hilbert
jamestown
mcmillan
tulane
seychelles
caledonian
puebla
rotherham
seo
dunlop
hellenistic
danes
hollis
gesellschaft
douglass
salim
townsville
southport
kato
jena
berber
hardin
nara
caitlin
jennie
balfour
lyman
fatima
sargent
muriel
jimi
vanuatu
glendale
livingstone
cessna
eine
coptic
tortricidae
antilles
michelangelo
fitz
lombardy
bobbie
xiang
minogue
barak
kwan
horatio
paxton
uno
rutland
decatur
kruger
silvia
vr
cree
percival
henan
bautista
mika
puget
kassel
wessex
bromwich
egan
knesset
greensboro
zev
mendes
sonya
urbana
ithaca
zimmerman
clermont
skylar
gustave
bromley
umar
bridgeport
siegel
marko
lucille
kathmandu
robyn
malvern
jiangsu
tobin
perrin
silvio
iqbal
selma
hirsch
calderon
moravian
bodo
gael
montpellier
aldo
dempsey
rocco
merton
taunton
howie
arun
duluth
kepler
laszlo
indira
lucinda
saxons
federer
quakers
bassett
donnelly
yamamoto
azores
roderick
himalayan
transvaal
mcnamara
ivo
sava
jaipur
goran
whitehall
israelis
demetrius
beale
anwar
darmstadt
parana
mayfair
ferrer
mondays
tiberius
brahms
battista
antoinette
bedfordshire
austrians
aix
lehman
quinlan
sorbonne
nunez
moritz
malacca
donnie
huntsville
loretta
cochran
dalai
mcconnell
moffat
sousa
marylebone
daniela
salman
reykjavik
adolph
maui
clements
joo
kaitlyn
amara
osman
hackett
yucatan
brno
ferrara
turing
mccann
andersson
gaines
payton
afrikaans
grafton
suzy
jacobite
ashby
latham
spielberg
ezekiel
durga
middletown
yoko
debra
peshawar
loren
dutton
malabar
marche
yarmouth
kristina
chopra
galician
lucie
burundi
dogg
crawley
hamish
buick
kiara
kowalski
oakley
custer
havre
hendricks
nietzsche
selangor
seminole
innsbruck
ashok
batavia
gaddafi
kobayashi
aramaic
mendez
winthrop
cochin
bukit
leith
sadler
xander
essen
mcintosh
walsall
beverley
schwarz
rosenthal
vikram
chalmers
groningen
unicef
sulawesi
avila
cai
aachen
nikita
gough
donetsk
grenada
eireann
britney
aarhus
vichy
broughton
finley
hannover
margot
jian
gerais
anzac
cambrian
yellowstone
tatar
skopje
vidal
mcqueen
kanye
astoria
bessie
marek
hillsborough
bancroft
gifford
martinique
shang
dwyer
soyuz
britten
calabria
cramer
forsyth
schumann
newbury
andover
dunkirk
buren
berman
napoli
starbucks
patrice
triassic
vo
fujian
hampstead
marsden
rosalie
patna
woolf
motorola
sanjay
salamanca
##b
##c
##d
##e
##f
##g
##h
##j
##k
##l
##m
##p
##q
##r
##u
##v
##w
##x
##z
##aa
##ba
##ca
##da
##ea
##fa
##ga
##ha
##ja
##ka
##la
##ma
##na
##oa
##pa
##qa
##ra
##sa
##ta
##ua
##va
##wa
##xa
##ya
##za
##ab
##bb
##cb
##db
##eb
##fb
##gb
##hb
##ib
##jb
##kb
##lb
##mb
##nb
##ob
##pb
##qb
##rb
##sb
##tb
##ub
##vb
##wb
##xb
##yb
##zb
##ac
##bc
##cc
##dc
##ec
##fc
##gc
##hc
##jc
##kc
##lc
##mc
##nc
##oc
##pc
##qc
##rc
##sc
##tc
##uc
##vc
##wc
##xc
##yc
##zc
##bd
##cd
##dd
##fd
##gd
##hd
##id
##jd
##kd
##ld
##md
##nd
##od
##pd
##qd
##rd
##sd
##td
##ud
##vd
##wd
##xd
##yd
##zd
##ae
##be
##ce
##de
##fe
##ge
##he
##je
##ke
##me
##ne
##oe
##pe
##qe
##re
##se
##te
##ue
##ve
##we
##xe
##ye
##ze
##af
##bf
##cf
##df
##ef
##ff
##gf
##hf
##if
##jf
##kf
##lf
##mf
##nf
##of
##pf
##qf
##rf
##sf
##tf
##uf
##vf
##wf
##xf
##yf
##zf
##ag
##bg
##cg
##dg
##eg
##fg
##gg
##hg
##ig
##jg
##kg
##lg
##mg
##ng
##og
##pg
##qg
##rg
##sg
##tg
##ug
##vg
##wg
##xg
##yg
##zg
##ah
##bh
##ch
##dh
##eh
##fh
##gh
##hh
##ih
##jh
##kh
##lh
##mh
##nh
##oh
##ph
##qh
##rh
##sh
##uh
##vh
##wh
##xh
##yh
##zh
##ai
##bi
##ci
##di
##ei
##fi
##gi
##hi
##ii
##ji
##ki
##li
##mi
##ni
##oi
##pi
##qi
##ri
##si
##ti
##ui
##vi
##wi
##xi
##yi
##zi
##aj
##bj
##cj
##dj
##ej
##fj
##gj
##hj
##ij
##jj
##kj
##lj
##mj
##nj
##oj
##pj
##qj
##rj
##sj
##tj
##uj
##vj
##wj
##xj
##yj
##zj
##ak
##bk
##ck
##dk
##ek
##fk
##gk
##hk
##ik
##jk
##kk
##lk
##mk
##nk
##ok
##pk
##qk
##rk
##sk
##tk
##uk
##vk
##wk
##xk
##yk
##zk
##bl
##cl
##dl
##fl
##gl
##hl
##il
##jl
##kl
##ll
##ml
##nl
##pl
##ql
##rl
##sl
##tl
##ul
##vl
##wl
##xl
##yl
##zl
##am
##bm
##cm
##dm
##em
##fm
##gm
##hm
##im
##jm
##km
##lm
##mm
##nm
##om
##pm
##qm
##rm
##sm
##tm
##um
##vm
##wm
##xm
##ym
##zm
##bn
##cn
##dn
##fn
##gn
##hn
##jn
##kn
##ln
##mn
##nn
##pn
##qn
##rn
##sn
##tn
##un
##vn
##wn
##xn
##yn
##zn
##ao
##bo
##co
##do
##eo
##fo
##go
##ho
##io
##jo
##ko
##lo
##mo
##no
##oo
##po
##qo
##ro
##so
##to
##uo
##vo
##wo
##xo
##yo
##zo
##ap
##bp
##cp
##dp
##ep
##fp
##gp
##hp
##ip
##jp
##kp
##lp
##mp
##np
##op
##pp
##qp
##rp
##sp
##tp
##up
##vp
##wp
##xp
##yp
##zp
##aq
##bq
##cq
##dq
##eq
##fq
##gq
##hq
##iq
##jq
##kq
##lq
##mq
##nq
##oq
##pq
##qq
##rq
##sq
##tq
##uq
##vq
##wq
##xq
##yq
##zq
##br
##cr
##dr
##fr
##gr
##hr
##ir
##jr
##kr
##lr
##mr
##nr
##pr
##qr
##rr
##sr
##tr
##ur
##vr
##wr
##xr
##yr
##zr
##cs
##ss
##at
##bt
##ct
##dt
##ft
##gt
##ht
##it
##jt
##kt
##lt
##mt
##nt
##ot
##pt
##qt
##rt
##st
##tt
##ut
##vt
##wt
##xt
##yt
##zt
##au
##bu
##cu
##du
##eu
##fu
##gu
##hu
##iu
##ju
##ku
##lu
##mu
##nu
##ou
##pu
##qu
##ru
##su
##tu
##uu
##vu
##wu
##xu
##yu
##zu
##av
##bv
##cv
##dv
##ev
##fv
##gv
##hv
##iv
##jv
##kv
##lv
##mv
##nv
##ov
##pv
##qv
##rv
##sv
##tv
##uv
##vv
##wv
##xv
##yv
##zv
##aw
##bw
##cw
##dw
##ew
##fw
##gw
##hw
##iw
##jw
##kw
##lw
##mw
##nw
##ow
##pw
##qw
##rw
##sw
##tw
##uw
##vw
##ww
##xw
##yw
##zw
##ax
##bx
##cx
##dx
##ex
##fx
##gx
##hx
##ix
##jx
##kx
##lx
##mx
##nx
##ox
##px
##qx
##rx
##sx
##tx
##ux
##vx
##wx
##xx
##yx
##zx
##ay
##by
##dy
##fy
##gy
##hy
##iy
##jy
##ky
##my
##ny
##oy
##py
##qy
##sy
##uy
##vy
##wy
##xy
##yy
##zy
##az
##bz
##cz
##dz
##ez
##fz
##gz
##hz
##iz
##jz
##kz
##lz
##mz
##nz
##oz
##pz
##qz
##rz
##sz
##tz
##uz
##vz
##wz
##xz
##yz
##zz
##like
hyper##
##ite
tri##
lemur
##ase
milli##
paleo##
##ide
##osis
geo##
nano##
intra##
##ification
##genic
macro##
banksia
mega##
endo##
thermo##
sortie
immuno##
mbar
hypo##
##metric
##itis
cyto##
plutonium
tetra##
molar
##cyte
impede
hinder
diverge
cyber##
##cide
eu##
fluoride
nucleo##
##ette
alamo
casemate
##oma
exo##
cyclo##
##isation
baro##
evoke
batsmen
##genesis
lament
synopsis
carte
chetnik
meso##
##pod
repel
disarm
calibre
##head
hexa##
shutout
holo##
##amine
##ectomy
phenyl
cross##
allude
imitate
conclusive
hyphae
##phile
osteo##
bede
onto##
symbolize
barbette
lipid
westerly
mobilise
##ferous
myco##
##scape
amphetamine
intestine
buoy
##lysis
##proof
emulate
warble
##lith
everglade
scuttle
plough
spaniel
pore
con##
actin##
bolster
##tron
##ene
hijack
applaud
setback
polygon
allusion
allo##
amphibian
sejm
waugh
gastro##
tweet
ethno##
mya
alkali
stipe
oligo##
circum##
fermi
thio##
##morphic
cryo##
alienate
exert
mal##
plunder
##uple
contradict
musket
redeem
quadri
trot
predation
bower
despatch
magnet##
raptor
loris
cusp
o##
peloton
##phyte
defy
precipitate
haemo##
mandible
overt
inundate
palate
torrent
cannibal
convect
beryl
exacerbate
hydrate
crewmen
congratulate
disorganize
requisite
terrier
wane
defer
massa
analyse
sero##
##plex
hyena
procure
socio##
capsize
dopa
boron
tern
supra##
##morph
myo##
glyco##
anthropo##
cob
conspirator
taper
renounce
theropod
cranium
ravel
##phobia
##trophy
discern
infest
sora
phospho##
stela
squall
polarize
speer
ornitho##
uni##
brahmin
gull
sile
wrack
phyto##
incite
motte
pyro##
concur
catapult
evaporate
mire
ridicule
raccoon
obstruct
bleach
fluoro##
wiggins
dispense
thorax
anecdote
wort
##ose
grunge
resonate
oxy##
standout
christen
profess
replenish
cephalo##
petrel
becket
trawl
puritan
annihilate
crustacea
hubble
antiquary
##phore
entail
transcend
ail
ruff
bale
interrogate
claimant
curie
gimmick
foal
benzo##
sledge
vandal
venous
filament
mediocre
triton
caudal
naruto
miz
plankton
zerg
##woman
luminosity
itch
##pathic
howitzer
incarnate
metallurgy
scathe
lipo##
prosthetic
meander
phosphor
crease
marceline
mash
pectoral
salamander
burgh
prerogative
deflect
xeno##
dwine
hap
bayonet
ethyl
regenerate
spoof
caricature
turbo##
granule
necro##
ester
refute
sulfide
logarithm
deduce
curtail
deceive
##morphism
monologue
tramp
clitoris
equate
karyon
kennel
phylogeny
rupture
##wear
termite
arthropod
organo##
an##
breech
repress
tungsten
hogg
theorize
archetype
fluorine
incursion
assay
hype
polio
encroach
##chrome
antelope
gladiator
kink
obverse
solidify
chroma
isthmus
montage
cosmology
lapse
summarise
paine
##tropic
dodo
mamluk
histo##
raze
clot
spook
starling
quark
veer
bure
mitigate
sprite
orchestration
cuticle
albatross
eon
offseason
tyrannosaurus
wagga
pharmaco##
vagina
alder
gator
idolater
deb
forfeit
hoard
expend
nymph
allele
dissident
incisor
pandemic
ribo##
mottle
caldera
leno
selenium
historio##
recuperate
shelve
gestation
dunder
punctuate
shrew
caterpillar
moult
piccadilly
sympathize
kart
malfunction
phonographic
redoubt
##blast
cultivar
meth##
posit
bismuth
brill
cheetah
leng
quadri##
quell
slum
urn
byway
chinook
omission
cockatoo
facet
conformation
decipher
epilepsy
souvenir
chancery
ovation
chloro##
litho##
pedigree
polonium
conscript
ellipse
inert
mollusc
muppet
puncture
crypto##
impeach
renown
stork
slough
twine
carcass
azepine
dia##
phono##
salvo
psilocybe
vigilante
aspirin
gait
nuance
tusk
bohr
quirk
wither
reversible
ingest
slime
incubate
maxilla
specter
##ped
cohesive
inventive
chlorine
instigate
carrack
constructor
glam
kindle
##grapher
borscht
caesium
hump
inconsistency
graphite
manganese
tortoise
uptempo
zahir
amanita
cyano##
figurine
macaw
pan##
profane
garter
herbivore
supplant
bumble
deride
quag
politburo
rampart
brooch
pelvic
rivet
stratus
carcinoma
dredge
pollute
rewritten
basidia
preclude
tinker
conspire
graft
taiko
coerce
iguana
regia
malt
medic
northeasterly
ovary
sauropod
virtuoso
austere
burnside
digestive
plagiary
conifer
delusion
postulate
revamp
angio##
hustle
offa
serpin
smelt
ulcer
revel
morph
recede
embroil
gully
embellish
locust
trachea
discrepancy
hippie
hun
intoxicate
pint
secretion
cadmium
glyph
idio##
parity
radon
##plasty
carnivorous
cerebellum
myelo##
ascertain
enquiry
fibro##
matri##
rehabilitate
relapse
wail
abdicate
contemporaneous
luge
mutate
omni##
pola
##derm
predominate
recitative
ecto##
flake
oliphant
bute
palladium
##gamy
##philia
aggie
genital
antimony
caption
gadget
grizzle
vertebra
apprehend
daunt
interpolate
latex
sagan
aristocrat
avert
bide
grievance
indulge
infuriate
phallus
pixie
stipulation
stylus
pryce
rebuff
tropo##
jig
stag
tout
azalea
bedouin
burse
pygmy
soma
dilute
epistle
poignant
xenon
meticulous
riel
shoal
whim
behest
dissuade
globular
numeral
populist
adjourn
suggestive
iodine
pulaski
spout
epitome
esque
salient
ambi##
receptive
abstain
appraise
cystidia
milligram
##eous
##phobic
barricade
poach
purify
quadrangle
smither
stereo##
swagger
eradicate
pelican
pylon
cockroach
impure
rump
thrush
altercation
cossack
fruition
midshipmen
rhinoceros
connote
fanatic
gopher
rout
vagrant
giraffe
##phage
argon
continuo
envisage
kif
recollection
symbolise
apo##
beagle
hussar
joss
monger
phago##
ritz
emplacement
tarsus
##gamous
molotov
ordinate
sonnet
alkaline
corroborate
courtier
lettuce
nitro
palisade
straddle
acrobat
impart
accretion
bastille
quasi##
burglar
stelae
alchemy
bodyline
daft
foray
funerary
surmount
##philic
addictive
farce
inquest
recurrent
scant
amine
grudge
officiate
sluice
supernovae
acetyl
cyst
echelon
eigen##
espouse
hippo
impale
penda
rescind
vaccination
corinthian
diurnal
pneumo##
strafe
afflict
clam
deduct
dole
habitable
reprimand
walrus
##polis
elicit
palmyra
placenta
##hedral
charisma
fortnight
gnostic
hither
pantomime
rectify
rudiment
transept
valence
wart
bight
circumcision
contrive
lancer
pinafore
vocalization
yolk
counterfeit
perpetuate
quarantine
incubation
junker
juror
conjugate
emigrant
halide
krypton
lag
scaffold
opportunist
oscillation
valent
cere
detractor
entrant
eschew
hallow
plebeian
snip
trespass
glitch
hallucination
resumption
sephiroth
sow
##fest
chromium
entice
hyaline
ibis
incendiary
signatory
abridge
allegory
archaea
buyout
expectant
lbf
retina
fastball
hypotheses
mite
avionics
culver
hegemony
infidel
liberator
sprink
tonnage
deficient
devour
femur
hemorrhage
hepato##
melodrama
sickle
beneficiary
bizet
chamberlin
gyro##
lat
typhus
chlor##
crag
criss
minimise
negate
tweak
amide
buttress
liao
oestrus
saccharo##
unilateral
admirable
booty
decry
implosion
incest
lichen
logia
promulgate
vedder
accomplice
aqueous
extermination
gillie
ply
rationale
reliant
strut
synonyms
acropolis
bandicoot
nott
quip
rapunzel
reagent
spar
woof
audio##
broccoli
coda
coulee
hessian
nerd
burlesque
chargier
formative
luster
nascent
shun
annotate
displease
emu
follicle
haddock
inflorescence
labium
mahabharata
chakra
tic
wilco
amyl
carnivore
crucifixion
doppler
dividend
legate
microbial
oscillate
pretext
sprain
arisen
downplay
gallop
irradiate
cocoon
phyletic
refract
scorn
strum
tendon
flory
hemlock
rabi
tedious
boult
donner
dubstep
embargo
khagan
oro##
rebut
thebe
arbiter
beet
boletus
catalyze
centaur
ferro##
hydride
indefatigable
treble
bowel
commandment
cortico##
falsetto
mellow
sclero##
aborigine
folio
habitation
repudiate
suitor
swede
##iform
eunuch
garnet
nucleic
andromeda
attribution
capitulation
defection
diddy
emissary
fewest
haplo##
heed
helio##
nor##
shutdown
tantra
tulip
appease
burnet
devolve
entomology
meningitis
phoneme
pontoon
synthesise
tipu
watchmen
animosity
housewives
molybdenum
mutilate
noblemen
orator
subversive
tectonic
astound
centric
expatriate
macho
skew
acetate
dilate
lull
nativity
obligate
singly
tellurium
thromb##
yokozuna
despot
ferment
fiasco
girder
incompetent
peso
surmise
aeroplane
disparage
grampa
grosse
instill
lanthanide
magpie
nomad
osprey
splice
cadre
cherish
gaol
heist
levee
lympho##
nug
rewrote
##drome
##mobile
feign
keto##
overran
oxidant
preferable
prognosis
remit
sloot
usurp
adeno##
disparate
plasm
bolete
exponent
hieroglyphic
invigorate
##mania
australis
censure
dislodge
locomotion
midshipman
mop
peregrine
pragmatic
acne
disseminate
glaciation
knoll
militiamen
mycorrhiza
nuisance
##core
alkyl
culprit
hippopotamus
lite
locale
pickle
stub
cartilage
concave
foliot
forgery
garibaldi
overthrown
progenitor
roo
sectarius
villainous
advert
bougainville
bullion
epidemia
feminists
grail
grieve
pelagic
pundit
##biont
ascetic
quintessence
seismo##
stoic
sturgeon
tamp
##tic
capitalise
entero##
krab
tambourine
##troph
conformity
derail
dike
duo##
lampoon
marque
nurture
prion
schism
blate
enigmatic
martel
oar
omen
thresh
canis
cation
coon
excommunicate
geyser
ingestion
overtaken
parsec
pence
reparation
solitaire
standish
vestige
decimate
decoy
desertion
pretentious
sclerosis
wick
abdication
carbohydrate
chaco
conduit
decapitate
geno##
juxtapose
midget
saturation
secrete
accrue
brust
equaliser
literate
narcissus
pterosaur
reciprocate
sith
skit
uro##
belch
curfew
disarray
evocative
glamorous
lice
meme
nephro##
polluted
repatriate
reprisal
abate
bethe
captor
euphoria
numismatic
oratorio
pacify
precarious
vasa
fatale
financier
kestrel
modal
planar
publicist
repatriation
capon
carty
elegy
emanate
fanfare
fret
loathe
##uria
ante
atheism
fume
hajj
imbue
respiration
scavenge
brunt
disparity
esoteric
imposition
insular
latent
moray
transcendental
chough
clump
daw
dominica
hone
intermediary
motorise
pediment
pelt
pheromone
coagulate
deforestation
electronica
juba
lewes
mutineer
senna
vindicate
capitulate
evacuee
masculinity
mew
pom
radium
recurrence
satanic
scape
synaptic
briar
cacti
chappell
equivocal
nemo
piety
primordial
quisle
reave
redone
thrombus
whisk
wile
bequest
cellulose
cessation
luminescence
ruble
sifaka
strato##
suzerain
syphilis
thoracic
tyrannosaurid
acyl
blister
clough
congest
dissect
inertia
psoriasis
whop
americium
burgeon
cirque
crackdown
fief
flamenco
saffron
salami
smetana
teleport
vaso##
woe
alienation
attrition
boniface
fink
moot
nimrod
obliterate
pellet
sled
sprout
vehement
anu
cloister
copulation
disobey
eucharist
orangutan
rhime
shroud
surrogate
wring
##ancy
corinth
hoppus
hotspot
koala
radii
stamina
vespasian
##arium
bowser
circumvent
colonise
farthest
fetter
introspective
lorry
lymph
peril
withheld
bellerophon
dissection
globule
machinima
paparazzi
parlour
rapture
sentry
sycamore
venerate
voivode
blythe
cicada
deus
excrete
fanbase
fissure
fulfil
rafale
rhetorical
testimonial
accentuate
cetacean
compatriot
congregate
effigy
ennial
entente
familial
fiend
larva
nizam
tryout
viability
vignette
armageddon
detour
equine
frome
impressionist
triptych
##ode
chondro##
contour
glorify
mortuary
mullen
symptomatic
binomial
extremity
prong
undulate
anion
chalco##
conch
explanatory
lockdown
noh
pervasive
pillage
stroud
##geny
##punk
baronial
deceptive
gallows
homologous
hydroxyl
iridium
nourish
pituitary
sceptical
vesta
anemia
aural
bonham
brachio##
bugle
confessor
dalmatia
dor
enfranchise
forester
ghat
masquerade
secede
substantiate
viviparous
zeal
##crasy
annul
aqua##
bacterio##
bosh
carbide
consummate
convolute
exhume
exude
kerrang
lyme
monteith
palladian
rayne
rosetta
wilt
appointee
calypso
curium
elude
fodder
gazelle
governess
inexperience
karaoke
nitride
sabin
sitar
tantalum
tolerable
accede
barbera
billiards
ism
ppm
reminisce
specificity
vidya
depletion
diarrhea
digestion
flamboyant
hamster
mackintosh
nasri
racket
seep
subjugate
superstition
tarnish
clipper
fermentation
frieze
gondola
lanthanum
parakeet
punitive
tuber
tumultuous
vanadium
yttrium
##topia
allegorical
amphitheatre
arboreal
brachy##
coalesce
decency
excise
idiom
ingenious
pyroclastic
repercussion
scrimmage
vandalism
crake
dialog
dismal
ethos
hoe
tron
assailant
condominium
gird
hymenium
melodramatic
mycelium
saucer
##ergic
chare
curricular
dalek
exterminate
frill
grist
quill
sauvignon
subtitled
trope
centurion
cohesion
conservant
eloquent
negligible
scallop
scavenger
ultima
berkelium
detract
diem
electrocute
fugue
furthest
hepta##
inne
obelisk
rickey
salinity
terrapin
arable
barium
chagrin
cordon
debtor
flak
fosse
impulsive
pott
tenable
wean
xylo##
##aceous
abrase
balk
codon
ersatz
falk
gastric
illiterate
inshore
lib
modell
mow
oo##
ratchet
tranquil
allosaurus
articulation
cocker
collage
compulsive
conjure
divergent
floodwaters
grouse
physio##
polity
porpoise
salo
solace
auk
deuce
epitaph
jive
metaphorical
mortem
perihelion
skid
soot
symbiotic
transpose
yap
agro##
cheddar
clado##
conduce
diplo##
frith
hobbit
mikado
pall
sill
uplifting
cull
jetty
matrika
memorize
pastiche
reek
shogun
assemblage
carrion
epinephrine
germanium
kanon
mediator
monotone
semite
swive
synchronous
uterus
vizier
zirconium
biopic
duma
fixation
fonda
neutrino
olfactus
plummet
pollination
retroactive
allotment
angst
bode
conid
conquistador
edifice
grandeur
halo##
jumbo
minster
ovule
quash
sinus
stutter
abortive
amputation
audacious
barra
benthos
cauldron
eccle
effectual
fetish
interwoven
larval
louse
maturation
peen
retard
riparian
tenet
tenuis
turnaround
turpin
acetic
adaption
bogie
fossa
gauntlet
lustre
maharishi
ochre
patrician
scrupulous
subvert
zygo##
##icide
blasto##
broderick
culvert
cysteine
epiphany
germ
hinterland
negotiator
pimp
sentient
stimulant
tutorial
tyranny
viscous
##ule
astatine
avow
chivalry
dermal
escalator
goalie
grue
heretic
hypocrisy
metamorphose
molest
nematode
operetta
parishioner
perk
riata
sensitize
wildebeest
##lytic
construe
dugong
faraday
halogen
harmonious
juggle
kerato##
metabolite
stalwart
sympathise
transduce
##oic
##phobe
buckeye
corsair
edibility
grandiose
marcher
meld
migraine
parable
parallax
passerine
physique
provenance
##lite
apathy
evasion
iceberg
refund
shingle
starch
thrall
transpire
aesthesia
brevet
cheilocystidia
destruct
hyperbole
kain
materiel
sadist
snub
veneration
witting
charan
crosier
dignify
ejection
executor
garrick
heckle
indomitable
minstrel
respite
subtract
tenacious
thallium
urinary
wop
##free
attenuate
brahman
diminutive
invalidate
melon
porcupine
retook
sault
tart
termini
alluvial
eland
habeas
henchmen
herpes
hooligan
jab
limbo
mallet
obi
strenuous
##plasia
batik
carapace
conservatism
contraceptive
deft
delicacy
deva
dressage
erotica
eviction
herbivorous
joust
loa
mantis
scour
shawnee
smut
billiard
broncho##
cordial
cornea
defencemen
dysentery
incinerate
metrial
mulligan
rubidium
vigil
bisect
cel
clog
conceit
cuvier
cyan
disprove
embryonic
gelatinous
gregarious
manzanillo
minotaur
mpg
nabi
pong
rejoice
rotunda
serjeant
sod
waka
wark
ambiance
ancona
arad
bantam
cabildo
delve
extortion
jaffa
juke
marten
mather
melano##
salaam
serpentine
stringent
visceral
abound
berk
demi##
divisive
ethereal
existential
incapacitated
irrigate
mouton
puffin
reactionary
tithe
wabash
westland
albedo
blazon
cholesterol
circumference
disgruntle
eradication
fisk
giga##
megalodon
memento
oxidative
pancreatic
spang
timid
ukiyo
bab
cabernet
canister
cohere
crevice
distillation
enquire
indulgence
kell
loupe
mediaeval
resonant
serrate
silica
brag
californium
calorie
carto##
chevron
commutative
dispel
eaves
engross
mechano##
mitt
palsy
petro##
praetorian
preferentia
quahog
sully
uterine
vindication
blotch
bullen
cantilever
carbene
chimera
chipotle
currawong
disfigure
dugout
exonerate
extol
galena
inoculate
invocation
metallo##
paddock
polecat
sedentary
skilful
allure
cephalopod
chastise
conscientious
cymbal
ecliptic
hermaphrodite
imperator
mutilation
rant
redress
rove
thaw
theistic
vig
wretch
carney
chiral
confection
cupid
derogate
equitable
fervent
goliath
gout
idealist
importation
maser
mime
oratory
ribose
scam
sesqui##
slander
triumvirate
wattle
amplification
apparition
convergent
deterrent
ecstatic
expound
karyo##
keratin
lassie
raffle
salina
serf
shrapnel
soleil
stratum
sufficiency
thule
typify
warfarin
woodruff
yelp
avar
ayu
barracuda
cardigan
cortical
fab
facsimile
fez
galvanize
gracious
hummel
lepidoptera
nigger
nodule
pastime
primus
regimen
scold
wobble
amputate
anoint
aries
baboon
batwoman
bronchus
corset
dramatist
emphatic
gaon
hippocampus
immobilize
impostor
incompetence
kumi
phylum
preempt
reverent
riesling
shakti
technetium
whipple
##pause
apportion
dunk
erythro##
foote
gangsta
gendarmerie
morgue
mucus
pacifist
pelvis
permissible
perturbation
pulsar
skink
stilt
strang
vendetta
video##
acrimony
archeopteryx
bani
bidi
dismember
edema
ere
exaggeration
famer
kosher
masse
orca
paraphrase
peep
sarcophagus
seniority
aquifer
colossus
dill
diplo
discord
durant
goya
incarceration
jarrah
jest
leftover
liber
lotto
marmot
morbid
personification
wag
yew
cliche
dogger
elope
enumerate
furl
hoof
mend
peridium
polyp
puma
relish
samara
scorch
shunt
snell
stegosaurus
swank
transistor
##gyny
baleen
brochure
citric
crock
customization
ewe
indiscriminate
innuendo
kitt
largo
magnify
nocturne
prune
resolute
strepsirrhine
tawny
uproar
urea
yogi
##plast
abode
affirmation
bureaucrat
carcino##
delineate
dumble
exalt
gimme
interdict
meddle
melrose
perforate
permeate
ploy
ralphie
reverence
sampler
subduction
vermilion
virtuous
chesney
coffer
cos
disobedience
doctrinal
dromaeosaurid
duiker
germinate
gian
gluten
glycol
immobile
insomnia
prophetic
shank
timpani
tribble
triceratops
trill
admonish
amicable
anamorph
ante##
deceit
doubleheader
epicenter
fraternal
gleba
indebt
octo##
penchant
pervade
sagger
siphon
slur
striate
studded
tribesmen
unforgiven
whittle
antidote
belligerent
concubine
denticle
egret
hafnium
hartebeest
iggy
inexplicable
kalam
lahar
littoral
medusa
permute
phalanx
predicate
rejuvenate
retrograde
samarium
southeasterly
aphrodite
ayre
carlin
contusion
demoralize
expedite
feeble
guile
inflection
ire
liman
morphine
niobe
oat
obese
pessimist
prickle
pyramidal
ashlar
assail
basso
chisel
cohort
condole
confiscation
cumbia
defensible
dissonance
embezzle
equus
intrepid
juxtaposition
lexicon
megatron
mink
mythos
osmium
polemic
semitism
tumour
wager
##athlon
amphitheater
bryozoa
chalice
cheque
cirrus
deprecate
fleece
joyous
laserdisc
oryzomyine
persuasive
provocation
recoup
rhizo##
strove
tutelage
vesicle
brash
brine
drib
echidna
evasive
fawn
gatsby
gramophone
gratification
hepatic
jinn
jovian
marquee
odour
orne
snob
subsidence
vend
winkle
zimmer
##ole
alms
aloof
industrialize
kip
lutz
mako
manche
microbe
offside
phan
plinth
primer
raga
susceptibility
typic
arduous
balustrade
brie
calamity
dermato##
detriment
dewar
energize
gluta##
heyday
iodide
laryngo##
legitimize
linn
loma
meditate
pied
pneumatic
precipice
prokaryote
sultry
zealous
adidas
astral
autocrat
couplet
fiberglass
flax
hetman
indistinct
kidderminster
mahone
mamba
platypus
sei
terran
withstood
bobsleigh
childe
cog
collie
colo##
concise
contra##
cram
detest
fathom
flammable
inclement
kiln
knut
makeover
mitigation
mush
ocarina
placate
pleurocystidia
puri
retinue
schilling
separable
straggle
swine
uric
yak
yarrow
##rel
ahimsa
aya
blight
boyar
crass
dada
dermis
exuberant
fibril
homeo##
incremental
magneto
mise
ney
peart
quantify
rapport
sacral
sassy
solis
speculator
thicket
velociraptor
yar
behavioural
biathlon
chute
clemency
contraception
copious
emotive
goldstone
havelock
lade
rix
solstice
spree
treachery
zig
##lyte
antisemitism
chimpanzee
coax
crucifix
deletion
dichotomy
diffraction
dutchman
gad
genitalia
geometrical
gila
haemato##
hallucinogen
hieroglyph
insomniac
intelligible
kakapo
pleura
promiscuous
rostrum
salvia
sari
subpoena
zephyr
##vorous
affidavit
apothecary
bowe
catechism
exhilarate
halve
immunize
inconvenient
infantrymen
klondike
lactate
lutetium
malignant
maslin
moby
nang
nihilist
pauper
penance
pinus
predicament
psychedelia
rectangle
rhino##
sedate
slew
spasm
##trope
bassoon
capacitor
clank
dendr##
durian
hankey
janitor
ludicrous
lyne
minaret
mott
primacy
pubis
spurt
stoop
taurus
tomo##
apatosaurus
chastity
comique
croton
desolate
expiration
frivolous
ganglia
gris
inept
infusion
ketone
liminal
melo##
methodical
pheasant
polychete
reprieve
resuscitate
spectroscopic
sternum
subsume
tester
toddle
vole
##coccus
aphid
boogaloo
chirp
condensation
deinonychus
diligent
feces
fluorescence
foreseen
gluco##
impediment
increment
lbw
luncheon
mechanise
metabolize
nag
onco##
salicyl
sanger
scandalous
thylacine
antero##
bondage
crescendo
deface
deflection
depressive
esquire
gambit
kiosk
mavis
misled
rafter
remand
rufous
russula
sion
sponson
suction
talkie
transgress
zayat
apocrypha
aza##
barbican
castrate
confound
congressmen
contemplation
enmity
escarpment
fluke
genial
gule
implore
ingenuity
kamikaze
latina
mear
mephedrone
paternity
proverb
rascal
roulette
samaritan
sejmik
serenade
sverdrup
swain
tether
topo##
vouch
ytterby
##formin
##meal
##stomy
commissar
freedmen
gilt
impeccable
insoluble
kampung
kayak
lineal
narco##
placid
presumptive
riven
teleplay
timbre
triplet
appaloosa
barque
blot
bolero
calligraphy
cenotaph
chitty
crematorium
dispersion
divulge
dyslexia
equinox
expropriate
freehold
hanuman
instantaneous
instigation
karst
librettist
morn
muddle
normo##
oblong
orthography
perilous
perturb
pharyngeus
sedition
septic
swath
taj
tenement
toothcomb
transplantation
winch
wipeout
##hedron
aneurysm
bole
botch
brackish
destitute
formosa
intoxication
kuna
luminescent
lyso##
maul
mitre
numismatist
poplar
riflemen
sacrificial
sanctum
smother
snuff
southwesterly
teak
arthro##
assize
chandelier
cupola
cwt
dandy
desist
doge
dryandra
durst
epileptic
florentine
glean
hex
hydroxy
ichthyo##
kea
misgiving
munch
nuclide
osmo##
percuss
seclusion
segue
strident
terpene
vena
wacky
yoke
adhesive
constrict
delimit
dendro##
guano
hemoglobin
leviathan
levo##
lexical
loon
marl
mussel
potency
proselyte
rhodium
teal
tetrarch
tomahawk
##mony
brindisi
busby
bustle
candid
caribou
excommunication
feist
flounder
foramen
grub
honorific
lucid
morel
nala
piquet
rhyolite
roscoe
sati
suffice
##cline
##phagy
anvil
banja
bunting
columba
consign
dura
fulmar
hadrosaurid
incessant
melton
parietal
radiance
savvy
sneeze
suplex
toxico##
trivia
vegetative
##uous
antiquate
cranio##
custodian
disorderly
gert
igneous
impala
indestructible
indeterminate
ly
manu
mol
moratorium
morpholino
ostrich
overlaid
overthrew
petiole
rowdy
ruthenium
standoff
temnospondyl
##biosis
##elle
annulment
anthrax
antler
bloat
booby
capuchin
cerebro##
claustrophobia
eidos
flurry
gruel
henchman
hippo##
marsupial
napalm
pallid
pathos
proteasome
slut
sojourn
speciation
synapse
vanquish
workmen
acquiesce
cathode
cholangio##
clique
conclave
dentition
ebb
hemp
hertz
imagines
lupin
manta
oxalic
passover
pulsate
rigor
stasis
syllabic
tripartite
tupelo
arras
autistic
battlement
blob
ceti
chauffeur
cilia
clergymen
colonnade
curtin
dissociate
flyover
hallucinate
megalo##
mulberry
parentage
pelham
practicable
prophesy
rukh
saprobe
syncopate
terracotta
toleration
tort
abra
babble
barnacle
bromo##
capo
caro
corral
degeneration
doodle
elegans
eminence
farr
gish
hew
malevolent
midwife
nitric
ogre
ontology
perjury
progeny
raspberry
saba
servitude
spiracle
strake
argonaut
bionic
borealis
capillary
copro##
cornet
cubeb
cumber
cyclops
fissile
francophone
harem
lich
masque
mecha
mistook
nip
pincer
presidium
proximal
stent
transgression
waite
##mere
alibi
banter
cataclysm
confidant
coronet
countrymen
croon
drab
genitals
inflect
lope
madre
meager
measles
mellitus
normative
obedient
pancreas
perverse
phare
propense
severus
simian
sulu
tassel
telethon
##algia
ancillary
appreciable
axiom
bis##
coercion
contraband
debacle
deci##
diction
diplodocus
egalitarian
emblematic
exertion
fedayeen
filibuster
glottis
grievous
homily
leotard
lute
magi
muck
nazism
nucleoside
occiput
olig##
onyx
presidio
presque
quotient
soundstage
tact
tireless
absolve
amalgam
anomalous
bayan
benefice
cervix
cowardice
defraud
deplore
determinant
emphysema
encrust
endocrine
hoplite
investiture
kennet
merle
nook
oriel
perma##
platonic
rogan
sceptre
skunk
steno##
swerve
tessellate
thrice
tilbury
upsilon
acorn
albertosaurus
attentive
axon
azo
ballerina
cladistic
coate
commandery
comptroller
credence
cysto##
entrain
evanescence
fecal
hod
idyll
itinerant
lollapalooza
lubricate
margate
mesoamerican
oculus
parte
puja
ransack
requite
seleucid
tiara
tracheo##
vapour
vigour
weevil
anarcho
apprehensive
bona
conte
debutant
emo
episcopate
expedient
fax
filtration
fraught
indemnity
jeer
keene
kineto##
komodo
machination
naturae
optimum
ostend
pogrom
precept
promontory
pugh
pupa
reverb
scepticism
scud
sedge
spam
springbok
tibia
turban
ungulate
valour
vestry
vigilance
##crat
annunciation
argo
biblio##
bromide
burley
burne
ceratopsian
cumulus
dacite
damsel
didactic
entomb
glutamic
impregnate
inari
incomprehensible
jettison
kady
kremlin
marvellous
neapolitan
nuptial
rosette
screech
semen
spink
spokeswoman
subcutaneous
toto
transitive
albino
armadillo
biopsy
calcareous
cosmo##
crucible
deformity
depository
divest
dud
fluor##
freeboard
goblet
jerkin
kiwi
lees
mantua
maxima
mikan
misogynist
mystique
ocular
scalar
schoolchildren
sexton
stroma
synchronise
tonality
zygoma
bebop
bigg
boa
broil
carat
commandeer
dengue
disjointed
feline
fleur
granger
hagiography
implacable
kinetics
leaguer
lilac
melanin
nepenthes
nim
nyala
pallium
perplex
saran
swoop
teleost
toil
walla
agonize
brandywine
catlin
columbine
decrypt
donne
dramatization
gratify
harpoon
homotopy
indenture
introvert
loam
medulla
metaphysic
monarchist
mondo
niki
nomen
nourishment
oesophagus
paralyse
perseverance
pervert
petrify
porous
scandium
tundra
vibrato
volva
##form
##ter
apse
astute
boomerang
categorical
chic
circulatory
cistern
deify
disenchant
disorient
elven
extravaganza
feint
flerov
futurama
goode
incriminate
intermission
lorn
malkin
maraud
mucosa
mutton
naso##
quoll
recant
reparable
ripon
rotavirus
rupee
seleno##
sine
summation
tabla
theodicy
transfusion
usurper
viro##
abhor
aerobic
aikido
annelid
aptitude
consternation
cortina
crutch
dag
deuterium
dogma
dromedary
grotto
hitmen
hoa
hobson
indulgent
interpretive
katsura
lancet
mimetic
mogul
musk
persevere
pretense
recitation
rosso
shao
sono##
stagnation
stele
tamarin
varnish
whine
wiz
##mancy
aldermen
antagonism
antecedent
brim
circumstantial
coccinea
crucify
dabble
dentary
finesse
intubation
mackerel
motorbike
ons
reiter
ronson
sibyl
squander
tachy##
trireme
ubiquitin
vert
balmoral
benzene
bering
capel
chicane
chromatography
coeliac
dearborn
droop
extradition
gouge
incisive
kerosene
lintel
melancholic
proletarian
quail
qualitative
questionnaire
raisin
reminiscence
rut
sharia
shrunk
thalamus
toon
tycoon
veterinarian
viceroyalty
yum
zigzag
aorta
blige
caballero
chancellery
collagen
cotyledon
elapse
embrasure
engender
fanzine
geld
grundy
hakim
imperium
intrusive
iodo##
plebiscite
precession
presage
proboscis
reclusive
rhenium
rud
stagnant
stooge
submissive
swastika
sympatry
vesper
zine
ashram
aversion
bask
boscage
cider
denunciation
dimetrodon
disclaim
extradite
extravagance
ferret
gelatin
kelp
lingerie
lyn
murk
narwhal
neptunian
obnoxious
oldfield
positron
possum
rodham
simplification
solder
stanhope
stave
tengu
ukulele
vigilant
aetosaur
aker
amenable
bennet
billet
centipede
chipmunk
cleg
compendium
contagious
dosage
gita
glade
heng
homophobia
indignation
jackal
jamaat
madge
mezzanine
nayak
necrosis
nettle
opto##
otaku
petar
pico##
piezo##
pumice
quarrymen
slink
solubility
spurious
studbook
witter
wok
amino##
anew
barter
bourgeoisie
changeup
corrosive
criollo
deluge
enantio##
ephemeral
gar
gump
hearse
hepar
herbaceous
infatuate
loin
meerkat
nepotism
oops
ooze
pinniped
poop
pyr##
rebate
reverberate
shakedown
sorcery
spank
staccato
whack
accrete
analgesia
antipathy
brougham
cirrhosis
complicity
corrective
dinghy
errand
esplanade
forensics
freeport
hag
hol##
lumbar
mallow
mannequin
matriculate
ohm
phobia
putative
quench
regurgitate
schole
sharpshooter
spiegel
tactile
takedown
truffle
tuxedo
tympanum
vocalisation
wiccan
absentia
amiable
apogee
beleaguer
bongo
braille
catheter
crib
cunt
cyborg
cytokine
debilitate
dickey
flamingo
hokey
jor
jure
leek
lemming
piller
plethora
presumption
prodigious
radish
ramification
renege
roon
suffocate
sulfo##
virulent
bupropion
caisson
cant
castor
cuirassier
dianetics
distil
fad
fluor
garnett
gutter
hatchet
ignimbrite
keck
lemma
lenient
logistic
plenum
poseidon
preeminent
primrose
prudent
sanatorium
scuffle
snag
spitzer
systematics
trestle
utensil
##cele
##phagous
admittance
aggressor
alveolus
anaerobic
avocado
bellows
bong
conciliatory
councilor
demarcation
emancipate
familia
flog
gonad
goosebump
kokoda
laborious
modesty
myrrha
ooh
pharynx
profuse
puberty
pug
romp
roux
spleen
testicle
theatrics
wannabe
androgynous
aryl
caustic
chameleon
chela
chromic
condone
croup
episcopalian
gratuitous
hwy
icing
iguanodon
lambast
meditative
milieu
moolah
posterity
proteo##
rationalization
rusk
schiller
silo
slumber
subsidise
synoptic
topographical
wye
arish
bogart
concoct
delinquent
dodeca##
dolomite
drear
embalm
epithelial
err
extort
hernia
honky
inconvenience
infatuation
jockeys
knack
masturbation
menstrual
noire
oration
orientate
outboard
papilla
postero##
reliquary
repent
repose
reproach
robo
seditious
subsist
titian
volk
wallaby
##aholic
##odont
acryl
alameda
allergen
arrear
booze
boson
buzzard
cnidarian
coo
countenance
democratize
devolution
druid
ectomycorrhizal
extirpate
harman
intangible
interment
lymphoma
macabre
motet
odeon
ophthalmo##
preen
raucous
scute
sessile
smalls
spinosaurus
tacit
vat
vindictive
waratah
##carp
ampere
aniso##
blubber
calcify
carinae
cognate
crinoline
cteno##
dirge
embolden
everyman
inadequacy
johar
justifiable
krone
languish
linezolid
mambo
manure
manx
nicotine
parley
quagga
resilient
rife
shrike
slava
spermato##
synchronization
verna
yeo
acclimate
boreal
cataract
cellist
cleft
conciliation
convocation
copulate
coupon
coyne
eucalypt
fart
hoya
huia
intercede
loo
loup
magister
militarize
oft
ogle
ouster
recline
rectal
remission
rota
rung
sarcoma
shute
suave
superfluous
telluride
tuatara
urchin
vestibule
waffle
abash
abbe
amphi##
banal
benz##
bombastic
bulwark
centro##
chibi
cline
delphine
derange
doon
esophageal
exhort
fictionalise
flask
fuze
glia
grad
holographic
humerus
hyphen
jargon
kama
kulintang
moraine
palpable
pare
pylori
raya
retaken
roan
sabina
septum
setae
skald
sleigh
sombre
soule
symbolist
thane
vicarious
xero##
##anth
agito
binge
bok
bushel
centrifugal
certiorari
chard
chaste
chitin
contaminant
cucumber
cutaneous
dishonor
embarkation
epigraph
fleshed
germination
hoot
insubordination
jayhawk
kohl
lupus
mahatma
mam
ornithischia
parse
peridiole
recollect
rhythmical
russel
slag
sumptuous
superstitious
tenacity
tich
titania
tonk
trina
trna
veracity
##ile
##onymy
##tome
almanack
alprazolam
benzoic
bream
circumcise
coronary
curia
enid
etiquette
fil
garb
hoodoo
huckleberry
iconoclast
infraction
maas
machina
materia
muskrat
pussycat
reconnoitre
sabbatical
sequin
spontaneity
subservient
subversion
tonsil
trite
trophic
zorro
##penia
agitator
ament
blackman
camelot
cartilaginous
disorganise
draco
gambier
glandule
gypsum
hibernation
lobo
meno##
molt
muscat
paleozoic
pulverise
quaternary
reciprocity
shiro
somer
sorceress
stipend
tartan
theorise
virile
ziff
aeolian
affront
aileron
arpeggio
bedell
brevity
cavalrymen
chromato##
cis##
clientele
courant
cutout
epithelium
extricate
ferocity
hammock
interdiction
itinerary
jackrabbit
kabuki
lyceum
machete
ora
orc
paracetamol
paschal
phonological
repulsive
restitution
righteousness
scarp
scion
shero
simplex
somatic
splendour
sunder
trypsin
yonker
yucca
annuity
annular
beret
bowle
brigantine
condyle
contemplative
dissonant
ealdorman
emulation
faire
faraway
fella
gauss
gush
hunchback
impersonal
kaleidoscope
kodak
latrine
livre
obsolescent
outrigger
peshwa
pinot
sanctify
scrum
scurvy
taxonomist
vali
volition
##sion
algal
anonym
bache
bren
cabal
canto
capella
competency
cress
dissension
dorso##
goss
grebe
hectic
justiciar
larynx
leitmotif
linemen
logo##
matchday
menagerie
mycelia
nucleate
pretension
recessive
schizo##
spald
technicolor
totem
tyrannical
anesthetic
animatic
arista
arjuna
artiste
blindfold
bronchitis
buffon
caper
chiffre
crassus
cybermen
denigrate
diagnoses
doink
dote
ducal
encrypt
excretion
firemen
gorton
guardsmen
harlequin
hock
interlace
ish
kudu
lech
midazolam
midge
miso##
mongoose
monogram
morello
noose
parr
pastel
planetesimal
poetical
pompous
profusion
prog
raunchy
selo
sleazy
squabble
suture
talisman
teng
traumatize
tuff
verdun
anemo##
anode
appel
appellant
banovina
bittern
bunt
carboxylic
centri##
chap
chasseur
dainty
donut
fanatical
gaiety
heft
hydr##
incurable
inoperable
lolita
manus
maths
methoxy
motorcade
orgy
passable
peduncle
penicillin
petroglyph
pilate
quinone
riviera
scum
selle
sinfonia
sublimate
tali
timberwolves
trainor
ute
versed
vilify
##kinesis
##vore
abscess
almanac
bicker
clamor
clarification
divination
docile
dossier
extrapolate
fractal
furan
gob
gulch
gumbo
hamel
handicraft
haver
impersonation
impropriety
infirm
iridescent
katniss
kwik
layoff
masturbate
nadir
oeuvre
ouse
outro
pax
permanence
playa
plenary
polarise
ricochet
sardine
slowdown
snape
toom
tween
veneer
yr
alban
amorphous
augmentation
ayr
brassey
chautauqua
coelom
corporeal
dactyl
daffodil
demarcate
evangelize
florin
fortress##
frenetic
frick
getaway
glycose
hadron
hansel
hydrolyze
intifada
jaeger
lurid
maundy
negligent
paoli
preamble
recommence
regalia
resilience
shanty
sludge
tuberculate
wiseman
wistful
affliction
carillon
cautionary
coagulant
copepod
corrode
courtesan
crevasse
decadent
despicable
diorama
dispensation
dotty
elixir
felon
hives
joule
levitate
lewd
lophophore
loudspeakers
mediocrity
minuscule
mizzen
opal
plumber
pomp
pteranodon
refreshment
retino##
serif
sialo##
statesmen
tensile
underwhelming
yam
##phyll
abir
adverb
allowable
anemone
aphtha
barbary
bucca
chaperone
cony
crenel
delirious
effusive
enamor
eugenics
foment
garran
glans
hoar
inundation
lard
leven
malleable
mamma
margherita
mero##
narcissist
nene
ordo
oryx
punic
regularity
sedative
spinulosa
stomato##
swathe
tress
trifle
valerian
yeomen
yogurt
abstention
adversity
anneal
biz
catalysis
chaff
chub
cine
collate
corbel
cosmo
denier
dilution
ductile
dupe
euphemism
extro##
flagellate
fortitude
fudge
goad
herbarium
heterogeneous
hypocritical
insofar
instigator
intelligentsia
jamboree
keg
kop
millet
modem
nacelle
patriarchate
pauli
phyla
predispose
prod
propriety
pula
realty
renunciation
replete
saltire
sardonic
sequester
simmer
stereoscopic
strobe
tera##
tilly
verbatim
wanton
wau
##ese
##fuge
ambivalence
anglicise
antagonize
appeasement
balboa
banshee
blasphemy
coronel
cygnus
dancefloor
darn
demotion
enchantment
enter##
ento##
epistemology
gneiss
goon
impasse
impresario
kee
kgf
laymen
loony
mallard
marconi
merengue
pacification
parsley
portraiture
premonition
preventative
pronouncement
psittacosaurus
purine
regenerative
rococo
shrank
swish
tectonics
tribulation
valuables
vivisection
werke
##athon
clout
comma
condescend
conurbation
disconcert
earwig
festa
foliate
garrow
ghoul
grocer
jarl
meltdown
metricus
myron
nebulae
neutro##
numerable
oto##
ovate
pillau
rin
rockabilly
salah
slatter
smit
smite
sportsmen
tephra
torsion
turbid
tyrosine
##tropy
adhesion
bailiff
bigot
bouvier
cellphone
crayfish
decadence
declination
douse
dowd
enema
evocation
ezrin
fag
fibula
foreclosure
impenetrable
kitsch
laity
lemuriform
literation
mince
oda
osage
paleolithic
plateosaurus
pluri##
poo
psych
revenant
schwa
scull
tartar
tyrannosaur
ventricular
voyeur
waddy
wass
##pnea
agaric
albumin
armillaria
blowout
caffeine
diabetic
diss
eloquence
ergo##
exhumation
gascoyne
hoarding
hough
lager
leprechaun
ligno##
morpheme
mutt
phantasmagoria
pique
proviso
purr
rattus
seng
splendor
sputnik
vex
vulgaris
alum
amble
assessor
bello
beveridge
boisterous
centralization
cera
compost
convulsion
copernicium
derailment
douche
dysprosium
eazy
embolism
erick
excellency
foramina
gamete
groupe
hairspray
humbug
hunk
immorality
impregnable
legible
maida
matador
metamorphic
noxious
odonto##
pander
pell
pitbull
purview
ragtime
receptacle
recourse
regnal
satiric
shonda
submerse
uranian
velo##
whitlow
zinfandel
adjudge
adjudicate
anaphylaxis
asci
aspirate
bachata
bayt
belvedere
bovid
boxset
capsid
cashier
chanson
cloaca
collard
contagion
cruciform
defector
delirium
diaper
edulis
entre
fallow
fealty
ficus
garnish
garuda
gentile
handover
interregnum
katha
kuan
loath
menial
merchantmen
meshuggah
mille
naturalization
nidal
palatial
petre
placebo
placekicker
polarity
quatrain
rarebit
saif
shingles
skua
tefillin
teleology
torus
tractable
trigonometry
tris
tubule
turnip
ulna
waterbuck
##burger
##land
adnate
agglomerate
allyl
anhydrous
arraign
basi##
buller
cassino
chum
corgi
coy
dement
devious
dingo
encephal##
forgave
frolic
ghibli
goggles
hallelujah
harbinger
hatt
hydroxy##
hystero##
mota
parkin
presto
promiscuity
pye
ruffle
sarco##
schist
serine
synchro##
zygote
##bot
##stat
adenosine
aegis
anil
anole
apomorphy
bock
bravado
bubo
bueno
carbine
celsius
cephalic
cession
chasm
cockney
conker
couture
decouple
demoralise
discontinuity
effeminate
enthuse
flail
incision
indentation
juncture
laminate
lob
mesmerize
messianic
modo
multiverse
nigra
octavius
palmetto
palp
passant
ponderosa
quinine
redox
refractory
resistor
retold
ritt
rongorongo
scintillate
selfe
serration
shahin
shep
snide
tet
thang
untold
urania
##ino
aberrate
agricola
aloe
anima
arse
articular
asperger
atman
auld
banister
brawn
caprice
caracal
carina
cleve
dalles
dexterity
diaphragm
finial
fleck
freemen
gent
goff
gravi##
grouch
hooke
illusory
irk
kelpie
krill
lehr
lubricant
lysis
mendeleev
modi
neuro
omnipotent
optimise
pachy##
pallet
paraphyletic
pertinent
portmanteau
quorum
rumination
sapro##
swindle
tarmac
trappings
twirl
vacuole
willful
##latry
barret
bhakti
buggy
calliope
cley
conflate
conservator
contravene
dorado
fandango
flannel
frankfurter
gama
glyceride
hemorrhoid
hoo
imitator
immolation
kitsune
macadam
manna
marionette
meiosis
midden
minutemen
morgenstern
nye
oran
ordinal
palustris
phaser
phlox
placard
portcullis
protrusion
pungent
pyre
reim
remuneration
retrace
sala
sanctus
smilodon
spandrel
spurn
stagnate
statuary
symbiote
tannin
tepid
upfront
voluminous
wallow
whistleblower
wraith
accost
agua
amputee
ballon
baryo##
biota
cajon
chell
clunky
cor
danton
derisive
dextro##
diadem
dislocation
dormer
escutcheon
exemplar
faeces
flaunt
gaster
inconspicuous
jinx
lagging
lamentation
lopsided
lys
mangle
mistle
mong
mucho
newtonian
nightjar
ob##
occlude
oxa##
paleontological
pedant
pejorative
pent##
pomegranate
porbeagle
savory
shiv
shonen
sobriquet
somato##
subjugation
tablebase
tarot
touchback
vail
visor
windle
zak
##saur
barth
behemoth
bhai
bosom
bracken
celt
debauch
desolation
duress
exclamation
floe
formulae
gaylord
haemorrhage
hain
helical
heretical
inquisitor
insinuate
intramural
lacquer
malign
manicure
martello
mauve
metro##
mezzo
mirna
moto
nematic
oka
omnivore
parabolic
phreatic
pico
promethium
prostrate
rea
rickshaw
robo##
shab
shaheed
shana
speckle
squirt
transmutation
tsesarevich
twang
vegan
voracious
adduct
aldehyde
amethyst
ammo
apoptosis
brony
canid
cay
cheval
choline
constriction
countout
cuddle
defecate
deject
dialectic
digitise
dorn
ejecta
enfilade
evangel
falsehood
grenadine
grump
hud
jitter
kilo
lith##
lollipop
lyre
matron
nefarious
nobel
oxo##
pisco
pleat
preposterous
proletariat
propulsive
prudence
psychopath
sanctity
satrap
stratify
terse
travelogue
vagabond
vee
zag
aceto##
agate
alberti
aurea
bigotry
binky
broch
causative
chien
codices
cruft
damme
digestible
elitist
elucidate
gettin
gluck
harmonium
hassium
incongruous
indecision
indignant
inhospitable
introspection
kar
kinsmen
modality
mucous
myotis
mystify
nite
occidental
pah
paragon
prawn
ptarmigan
pupae
quantize
scourge
sematic
steric
subordination
usurpation
vegetate
##path
##plegic
actuary
animatronic
audacity
battenberg
batu
bicameral
bora
bromine
bursa
castigate
ceremonious
corvus
curricula
darwinism
despondent
detritus
dour
ef
escapade
fascia
federalism
flange
fluency
gord
greenlight
helles
hoopoe
implode
inactivation
inboard
jangle
jaundice
ketchup
lek
lien
liquefy
muscaria
nigga
onomatopoeia
ostentatious
pessimism
porridge
pounce
predictive
prioritise
rabid
radioshack
raglan
satsuma
sheathe
silverstone
sphenoid
stadia
stash
synergy
teste
trax
vulpes
winnebago
abominate
anno
apis
appellation
arbitrator
billow
blitzkrieg
bogus
carlock
carnal
chafe
chai
clem
commendable
diptych
divisor
fragrant
frenzied
gargoyle
googly
indelible
industrious
kerb
keri
laryngeus
lepton
lightfoot
lumbering
maggot
manatee
nubia
omer
orthopedic
pail
particulate
plumb
rapprochement
repentant
rhebok
ruck
satanism
satyagraha
sepoy
serow
serval
soliloquy
throng
tyding
virgo
virion
zaire
zany
adipose
admissible
anguilla
assuage
barfi
bawd
beni
bilge
bludgeon
camaraderie
carpentry
carronade
cartesian
caveat
chee
combustible
communicative
delude
dench
diphthong
droid
ember
encomienda
forfeiture
friary
gash
gaud
gecko
glycan
guttural
haughty
hypothermia
interstitium
kiva
kline
mashup
mitra
muco##
observant
pharma
psittacula
putsch
quaint
reconnoiter
salmonella
selenide
sift
spate
speckled
stencil
stonemason
stratigraphy
surgent
symphonia
tricho##
tsarina
utero
weald
altricial
angiosperm
antebellum
armillary
babel
bascule
brainiac
butyl
caird
chide
copse
crossbred
cystic
diabolic
dispenser
dojo
excruciating
falconer
fic
fragilis
gravitate
hibernate
hippocampal
hoy
humus
hymenoptera
irritant
juggernaut
kanji
lamina
lumen
luminary
magyar
monocot
obbligato
obstinate
patella
phony
phyllo##
pitot
plat
platter
pon
praetor
precocious
pretzel
quint
rami
reflexive
reis
rheo##
rhododendron
rochambeau
roentgen
rondo
scooby
sebaceous
sightsee
squaw
stigmatize
superlative
swizz
tammar
tigris
umbo
ureter
wazir
##lock
amorous
angelshark
anther
balaclava
barbaric
basset
broth
castell
changeling
conatus
cormorant
cotta
debatable
dextrin
eid
fantasize
flashforward
foretold
galacto##
gallic
glidden
glut
glycine
gorgon
gras
helio
ibex
inductor
infertile
infomercial
katipo
kraut
lanier
legation
legionnaire
lieder
margrave
menstruum
motile
mutable
opossum
ovo##
paleo
permissive
persoonia
pimple
ratatouille
recluse
reticulum
reverie
rho
romanization
strepto##
stymie
sylvan
szlachta
tanjung
taro
terato##
transponder
trapezoid
ventricle
veritable
vitriol
##iasis
abrasion
acumen
adenyl
agung
ammon
aureus
auricle
baillie
bluster
brumby
chantry
crunk
cursor
decurrent
dissociation
dormancy
dought
dutchess
elegiac
errant
extrude
garret
genteel
hadrosaur
impotent
incise
incomparable
infarct
linga
lucent
missa
moro
negus
obtuse
patriarchy
pedagogic
photoshop
prismatic
purgatory
rearmament
reggaeton
ronde
rube
salta
scat
scimitar
seale
sepulchre
severance
smurf
statistician
syndical
taco
tait
tarantula
throffer
tubercle
vermin
waggon
##ulent
abelisaurid
ach
aficionado
airwaves
arachnoid
arcana
arethusa
artillerymen
bifurcate
bivouac
buffoon
bufo
centrist
condiment
coronae
corregidor
cyanobacteria
cybernetic
descript
diarrhoea
didact
ericifolia
esper
flue
froth
georgette
googol
grout
gyno##
hasta
horrendous
inlaid
jugal
kaiju
koji
larch
legitimise
legume
luv
magmatic
menziesii
modena
moiety
musculature
pari
parsnip
phoronid
potable
quack
remedial
sconce
skiffle
sodomy
stillwater
stupa
subduct
surreptitious
syringe
todo
trickery
weta
##sal
##static
affective
bedridden
bm
bonanza
concurrence
cowen
cruciate
deke
derision
diacritic
evince
exponentiation
fervor
gendarme
glyn
gomer
hickey
innocuous
inquisitive
jut
klepto##
langer
mcg
meagre
noddy
ostracize
pash
patria
plover
primo
probate
provo
pulley
rabies
roundup
spiro##
stamen
steed
tabernacle
teenaged
theses
tosa
tot
tricycle
tritium
uran##
whiz
xian
agri##
allemande
aviso
berserk
canticle
chelicerate
colic
cwm
decapitation
dermatitis
diligence
disloyal
disloyalty
drowse
eau
encumber
euthanasia
exorbitant
fedex
forth##
gallium
glim
heredity
iconoclasm
indoctrination
infinitesimal
interpose
kamala
latimer
lettre
lis
livia
mackinaw
maculata
magick
mastodon
molde
mutinous
neuter
nou
okada
oncology
outstrip
perpetuity
ponderous
pooh
potto
redux
septa
sinners
slush
somersault
sustenance
tabasco
tik
toft
tyme
ure
zebu
zeid
zest
aggrieve
anaconda
arterio##
blore
cadaver
calcite
changeable
checkmate
clementine
connive
corolla
cranberry
croak
dux
excelsior
falafel
foresaw
gigas
hiro
ima
infernal
iota
jackalope
lunette
lyo##
matinee
mela
mica
mitzvah
moa
monocoque
nao
occlusion
palliative
paralytic
parasaurolophus
prester
proteus
redistricting
remediate
rheumatism
rona
sacramental
sama
schema
slashdot
sobriety
swoon
synthase
trebuchet
wicker
abet
ay
bannister
batt
bevel
bib
bilbo
blip
bolshevism
brackett
canadensis
capacitance
capitan
celibacy
cerium
chak
chromatin
cotter
crux
curd
deleterious
elongation
epigram
fallacy
ferrous
foyle
frigg
gens
glebe
gracilis
greenlit
grope
hobo
hussey
hybridisation
hypothesise
immediacy
impervious
irreconcilable
irritable
jodhpur
kabballah
kray
loca
mang
manorial
mete
mexicana
mores
nit
outsold
overwrought
paco
pester
petri
pyridine
redman
shoplift
skerry
sn
spew
strontium
succinct
tetra
transliterate
urethane
urethra
vernal
vocoder
webisode
xantho##
yip
ablate
acetylene
astray
at##
averse
azimuth
barbarous
bourdon
camas
cameramen
clarion
cochlea
combe
connoisseur
cyberspace
denizen
domineer
drosera
dum
embattle
felid
fer
forebear
freudian
frond
fung
gard
girth
glaciate
glossary
golem
gooch
hedonist
inductive
informatics
kumari
liquidity
loiter
magenta
majora
meow
metronome
naka
ocelli
paucity
pepe
perce
philistine
polemical
porphyrin
ppg
preponderance
preservative
prospectus
prow
pustule
refectory
sanjak
shad
slaver
stratigraphic
succulent
terrane
theca
triangulate
tyrannosauroid
waterlogged
wheeze
womanise
yeti
##philous
##speak
##tropism
acrid
adipo##
aloha
alphonso
anglicize
ankylosaur
baccarat
bituminous
caramel
clerestory
cosplay
darwinian
deist
demur
desecrate
dishevel
disulfide
dobro
feudatory
fricative
frugal
gameto##
gangrene
grammarian
indolence
infertility
jiminy
kor
lactic
legge
leniency
livermore
maleficent
minuet
morphism
mullion
narthex
ord
oviduct
plod
purist
quietus
rad
ranga
ravin
reductase
reticle
scythe
sieve
sleuth
steen
stetson
tactician
thyroxine
trant
truncation
tunicate
variegate
varna
vela
vid
vivendi
warranty
wham
yeh
acharya
adapiform
adder
albacore
artifice
atelier
blemish
blimp
burk
cantus
casbah
cathartic
chronicon
chrysalis
claret
convalescence
cowl
credo
culpable
desecration
diddley
diphtheria
dwelt
eulogize
exploitative
frigid
hex##
holler
hypha
indriid
intonation
isoprene
junctus
lathe
lozenge
mayday
meare
moralize
mortier
nebulous
pantograph
plaintive
predominance
procellariid
raceme
radiative
retardant
ritornello
romana
santer
speight
spiro
stirrup
taff
trefoil
ununennium
variola
velar
vous
whippet
whoop
wray
absolution
adulterous
alcove
ascendant
athenaeum
audiencia
baroclinic
basemen
bozon
bugger
cannonade
catacomb
chairmen
cinque
clavicle
colley
commensurate
confetti
coracoid
darshan
echino##
egotist
ermine
flor
fluviatilis
fungi##
ganglion
genitive
globin
hamza
har
iconographic
inductance
inebriate
infantile
kami
khaki
kola
krantz
leper
lisle
lode
madrigal
malo
marmalade
minimalistic
mithridate
morbidity
mtdna
mudd
mullet
munshi
narcissi
ossify
ova
paladin
perfusion
peri
permeability
philander
porta
postern
protestation
prudential
quasar
rasa
recusant
rhodocene
rood
rrna
scepter
shapeshift
sino##
smog
spitz
spunk
syllabus
teem
vom
whiff
amicus
angelus
apricot
ballistics
bereft
bur
capri
carle
castaway
convulsant
cortisol
courteous
cropper
denature
doze
drapery
exorcism
farrow
fluidity
fortuitous
freckle
gon
gucci
guillotine
hearn
idolatry
improv
ingrain
kana
laminar
lexico##
ligature
loggia
marimba
militarism
moribund
olm
overblown
paraffin
perceptual
perforation
personage
polyphonic
precog
pringle
quinoline
reticule
rosaline
russet
schematic
scoundrel
sinew
slat
solon
stratagem
tantamount
tapers
tigre
tranquilize
tutu
ventro##
wone
acme
acuity
albus
amity
ankylosaurus
aquaria
aviary
bara
bazooka
beautify
benevolence
cartouche
churchmen
coppa
coulomb
deceleration
dentate
deputation
dogmatic
enliven
epaulette
erectile
etna
expiry
fal
firmus
fong
frock
gannet
gyrate
hermetic
hollander
homeric
hypoxia
kajal
kayfabe
keir
knickerbockers
lacto##
lazar
leod
lepidopteran
lilt
lopho##
lum
melisma
milt
mirth
myxo##
nautilus
nictitating
novae
okapi
pease
peta##
phage
phoca
plasmodium
pokal
polaroid
pooch
posada
prejudicial
proscribe
queef
saboteur
sauna
scrab
semblance
sensuous
shanti
shikoku
shoad
shootdown
sociable
stour
suede
transom
yawl
yuen
##lect
acetone
adulterate
alkene
ameliorate
apoplexy
axillary
beal
bilaterian
bleep
bract
brownii
byard
callous
cham
charlatan
chlorophyll
chou
complacency
contralto
conveyance
crony
demotic
deplorable
derm##
dickie
ditty
dolce
doux
emmet
euthanize
extraneous
feminize
flagrant
furlough
gantry
gravy
heme
hydrolase
intolerant
laze
libertine
maura
meer
minnow
mummify
murali
obtrusive
operculum
overrode
paraphernalia
pardo
permeable
portent
principia
progesterone
prowl
puli
pummel
quadrangular
quarto
repentance
ruminant
scrawl
souq
splatter
stadtholder
theist
thieve
thymus
tiki
tirade
toot
tora
vetch
wallop
zealot
##derma
##stome
acetylcholine
altruist
amen
amok
babysit
blackcurrant
bovine
bridegroom
brin
butyro##
bylaw
cabana
caerphilly
camber
carboxyl
chau
confidante
conus
convalesce
cowper
culverin
dahlia
demonstrative
deprave
diuretic
dork
elan
endothelial
eventuate
expunge
flavone
geronto##
glorification
glycerol
gote
grama
guereza
guilder
horrid
ichno##
igg
inane
incandescent
insidious
jeanette
laine
leer
marshalsea
metastasis
monogatari
monotony
mosh
napa
officio
ot##
pap
paraphyses
pate
peddle
peritoneal
philately
quadratic
quonset
raine
rote
schnauzer
scruff
senile
servile
shamble
shawl
sordid
spatter
tarpaulin
tempore
transposition
troika
ununtrium
wad
woon
yat
zeitgeist
##style
adsorption
beep
belfry
bloop
boro##
cacao
calthrop
carrow
celery
chalet
coll
commonality
conga
congruent
damnation
dass
demesne
demonstrable
deviant
div
elate
fillet
floss
fumarole
gada
geronimo
gorky
harangue
heer
herm
hermeneutic
homologue
impressionism
impunity
intone
jove
judicious
kilt
kimura
laceration
mardi
mope
nom
orientalism
palenque
peddler
peeler
philologist
plenipotentiary
plesio##
punctual
rend
reticulate
rother
scone
silane
stuntmen
subterfuge
systole
tangerine
tantalize
taran
tatter
teetotal
tights
titi
toboggan
tosh
veal
zymo##
##fication
abaft
aby
acer
acra
archosaur
atrocious
attila
ayn
bathy##
bespoke
busta
cajun
capote
carom
circuitous
corvid
cursory
dank
determinism
disapproving
dominatrix
drosophila
duodenum
estuarine
exorcist
fecundity
fervour
folie
franca
gnat
gourd
gourmet
grevillea
hirta
impartiality
knyaz
kumara
kyrie
leaven
libretti
lindy
loci
magnification
maim
mola
multiplicity
nitrile
nome
occidentalis
ooo
orang
osmotic
papyri
posh
pretence
proffer
psalter
puna
recompense
reentry
replicant
samarra
scaup
semaphore
sepia
sequoia
snore
snowmen
spool
staphylococcus
travail
wurst
xe
xerox
##cratic
acclamation
alas
alia
anchovy
anglophone
asymptote
athero##
atta
auteur
automaton
binocular
bitumen
bramble
bund
candidature
chanterelle
charterhouse
chloroform
clatter
conflagration
crosse
cubicle
cultigen
decontamination
denture
ducat
elasto##
emptive
entablature
exhortation
exuberance
ghastly
gingiva
grizz
hearsay
infraorder
insectivorous
insemination
insipid
jink
jus
kiddie
kula
liger
magus
mercurial
methylene
micky
mos
myrmeco##
obol
perversion
philo
pinfold
pragmatism
prius
protozoan
pyrimidine
qualm
radiological
raff
rancid
rangoon
rhabdomyolysis
rundown
saddlebred
scapular
scrotum
shew
spall
spicule
surat
synonymy
tarsier
tepal
texel
torpor
tradesmen
transmute
troubadour
unicameral
vibrissae
voce
vulgate
wiki
worshiper
abject
actino##
addax
amoeba
anon
applicability
bakula
barbarism
bigfoot
bogey
calve
candida
collude
comin
coronal
crayon
crick
cryer
defamatory
dinar
dzong
endeavoured
eros
galatea
gaussian
graff
hera
histone
implantation
incantation
inextricable
intercession
jebel
jodi
kraken
kroner
lambeosaurine
macaroni
mafic
maga
matriculation
mews
mich
molestation
mump
overshot
patten
pharyngo##
pluton
porphyria
porphyrogenitus
prodigal
randle
refutation
ropa
rorqual
roundel
savant
sceptic
scoutmaster
sextet
smithy
sorghum
tamaraw
tantrum
tiffin
tiggy
tropho##
tsang
vacca
vulva
wolfram
wondrous
ziggurat
##megaly
##phoresis
abrogate
ajaw
aniline
ataxia
beckon
birdman
bluebuck
boob
borate
bork
burh
caravel
catatonia
chiro##
citron
collusion
concoction
crochet
daub
dispensary
divisible
domicile
dookie
efface
entreat
evert
excrement
fark
faze
filial
fresnel
frontispiece
galactose
goshawk
hadith
haiku
hakka
heli##
ilicifolia
illustrative
impel
impinge
indole
infamy
instar
invisibility
medio##
mockumentary
mordant
moron
mortify
plantain
prebend
prosthesis
quintuple
redrawn
regalis
repugnant
reticent
sabino
sacristy
scald
scrutinise
siss
snorkel
sola
speciosa
stoa
sturm
suburbia
sullen
wafer
wank
whet
wilk
##clast
##cosm
##phasia
acquiescence
admonition
aerobatic
africanus
agar
aphelion
arbitrate
arcane
aurum
barbiturate
basse
batten
bedlam
bibcode
broodmare
burthen
carburetor
centi##
chevaliers
cichlid
clindamycin
commissary
corollary
costal
cyclopentadiene
dein
denominator
differentiable
empathize
enthalpy
entreaty
envious
esperance
estrous
fawr
flippant
florid
galleon
gino
gnaw
ihn
indiscretion
inexorable
infra
ingratiate
jacobin
kadamba
lactone
lectotype
liaise
lira
meth
mihrab
miscellany
montero
neanderthal
notary
nutritious
operable
ostracism
outgrown
panegyric
pedicel
peremptory
phalloides
phish
poco
polygynous
proline
propound
ream
recombinant
rectum
regulus
reredos
rishi
ruffian
sacrum
sanitarium
sass
sebum
sinecure
sinuous
skimp
sportscaster
stiletto
telly
telomere
toga
tremolo
trouser
vibrator
visage
wapiti
wisp
yee
yule
##poiesis
adagio
aggrandize
ani
antho##
aphrodisiac
asco##
attainder
bacchus
bennie
bloke
brane
caecilian
campania
capybara
castellan
chitti
cingulum
cloy
cobbler
collimate
coombe
curative
curlew
currant
dao
dargah
delft
demagogue
denominate
dido
discordant
drizzle
exacerbation
exorcise
femto##
fixate
fleche
gallica
gat
gradation
hacienda
heliport
hoi
inevitability
kauri
kwai
lectin
lignin
litany
lithography
madrasah
malaise
mayonnaise
meson
milliner
modus
mulatto
oblate
omniscient
ornithological
ott
oviparous
pacemen
plaudit
prescient
primogeniture
propyl
prosaic
protozoa
psionic
rime
scab
scapula
sclera
sedation
sein
sepsis
shelduck
sherd
squamosal
stowaway
summa
supple
sympathetical
tunku
vai
vire
voluptuous
ween
wisteria
yaw
yayo
zing
##cidal
##dar
abominable
alabaster
alchemical
alle
altruism
alveoli
ambrosia
aphorism
basidium
capoeira
capricious
carpal
cee
celibate
christiania
chug
combinatorial
complicit
congener
cordillera
crandall
creamery
croquet
custard
defensemen
diplodocid
equidistant
fairing
follicular
functionary
gibberish
gonzo
hospitable
hypno##
ilium
incognito
indica
inga
ingle
kendo
laryngitis
lune
macaque
madagascariensis
mair
maki
moulder
muffin
mundi
naivete
nonchalant
nutmeg
ost
ovoid
papist
partido
paycheck
peppermint
phantasm
poliomyelitis
premeditate
ravish
recapitulation
recuse
regio
regressive
relict
resold
retiarius
rhizome
sadism
sanitize
seethe
semifinalist
semilanceata
sequestration
sidero##
snot
spigot
stricture
succour
suffocation
tabard
teleportation
thyme
travesty
zap
##rrhea
##treme
affluence
agha
ashoka
austral
bix
bor
breccia
bungle
canard
carnation
cata##
catechu
catholicos
cayenne
chiles
choo
clove
colobus
constipation
cytosine
depravity
descriptor
desi
diller
discolor
dynamism
erudite
exon
extrapolation
fastidious
garish
gono##
gulden
gyrus
habitability
helminth
histamine
hypnosis
icosa##
irate
kamp
kimono
kluge
lain
leprosy
lias
loy
maund
monetize
myoglobin
nai
obsolescence
orifice
polje
polymath
prefigure
pyro
quinton
racquet
rem
repton
restaurateur
retouch
revile
rolland
rugal
sheaf
sira
sitatunga
spay
studious
swag
tableau
telemark
testator
transfiguration
ulterior
unbound
uni
vacillate
vesicula
viv
votive
walkabout
wuther
xtreme
##cha
##ician
acidification
affable
alexandrinus
archiepiscopal
asura
aurelia
blasphemous
bling
bont
bosporus
brigand
busk
camus
carcharias
carton
caudillo
cauliflower
caulk
cepheid
cheerio
chert
chine
cochineal
colugo
commissariat
continuance
corm
cuddy
darmstadtium
decrepit
deo
depredation
dictum
disinter
doppelganger
einherjar
fedora
flout
fructose
funicular
gare
gaucho
generative
geri
grosso
hao
havock
heritable
hyacinth
imine
incrimination
indri
interventionist
jute
labia
laissez
lethargy
lucerne
lunacy
makin
miser
morland
nigella
ozzie
padang
peal
perceptive
peristome
physiologist
pinnace
pith
pooter
proscenium
reductive
rhein
rive
roble
roque
rusa
salesmen
scouter
shorn
shylock
sirna
sleight
sooth
souter
swash
thrum
ununpentium
ununseptium
zouk
##not
anesthetize
aposematism
arles
arrhythmia
axiomatic
barcode
beluga
bin##
borax
bough
brevipes
burg
burro
cassava
catatonic
coeur
coho
comp
concolor
defame
degeneracy
detergent
diehard
dieu
digi##
dishonesty
dishonorable
dixit
droll
dubium
dunam
ejaculation
entomo##
etho##
extrusion
faggot
frisk
glaucoma
gulliver
hirundo
hoff
idiomatic
incipient
invulnerable
jeopardise
klipspringer
lesbo
livid
magnificence
malachy
mufti
naphtha
neva
opry
paean
phosph##
plausibility
poetics
quave
quinto
raab
recon
reprehend
rotoscope
saccharine
sacha
satchel
savoury
scrivener
secco
shampoo
sop
stochastic
suffragan
tarn
tattersall
ternary
thoraco##
tote
trapeze
umbrage
uncial
victual
whit
##licious
##rubicin
ably
aguinaldo
americanus
arachnid
asterisk
banditti
barcarole
batho##
bestial
blithe
cannibalize
complacent
crepuscular
crosscountry
cuneiform
dari
decorum
deja
deliberative
depreciation
dyne
empt
falx
flagella
gault
guan
heterodontosaurid
hiccup
hombre
homepage
hors
hypocrite
ideologue
impetuous
infallible
iterative
ith
kano
kook
lacrimal
languid
meningo##
methyl##
moebius
mollify
moo
moonlighting
natura
oint
pampas
parallelogram
parkour
pecan
percolate
phlebo##
phlogiston
phoney
phytophthora
plastid
programmatic
prolactin
quid
raines
reno##
reticulated
sachem
sleet
speck
spud
stot
uns
urticaria
wap
wrig
##clase
##gony
##therm
acolyte
actin
adsorb
adulation
amylo##
anine
ballplayer
balm
basidiomycete
biliary
biochemist
bombast
burrito
camerawork
caron
celest
chauvinist
chia
chilli
chorion
coincident
commensal
conceptualise
congregant
cuneata
daimyo
deuteron
digression
duodenal
eisteddfod
ejaculate
encyclicus
energise
enunciate
fane
fizz
framerate
ghazi
glycogen
griffon
gulag
headlong
hectopascals
heuristic
hominid
imidazole
interactivity
intercom
iridine
jiu
jubilant
jubilate
juxta##
kalonji
kuti
landfalling
laudatory
lino
lun
mendicant
mino
musculo##
nigh
nog
pandemonium
parti
piranha
poignancy
polis
precocial
principes
purdy
rabat
sagittal
scarab
sedis
sidle
standardisation
stoat
stritch
stupendous
talud
teeter
thyro##
trampoline
trillium
tsarevich
tz
unanimity
unrivalled
ununoctium
venison
vicinage
whipray
##log
agora
alluvium
ankh
anthracite
antinomian
bacillus
bobble
bossa
braggadocio
bunco
cacique
calci##
camarasaurus
camphor
catawba
chartre
cinnabar
crimp
delineation
depreciate
dervish
determinist
devastator
dm
downtrodden
drool
duodeno##
emaciate
emulator
etiology
eugenia
fidge
fike
formic
gandingan
garvey
gerrymander
glosso##
gros
heretofore
herniate
hobble
holme
homogenize
hsien
hygienic
hyoid
ingenuous
jape
macchi
mariachi
marischal
martians
marv
memorise
methionine
mormaer
naiad
nominative
oarsmen
obliqua
origami
pegasi
petro
politicise
prehensile
prude
quadrilateral
quiescent
ragam
repulsion
rinse
rostral
sagrada
sarus
scherzo
schmaltz
shalom
shaven
sinensis
solicitation
soss
spastic
spoilt
staid
stoichiometric
stupor
succinic
sulfite
supermodel
tapho##
tat
testicular
thicke
tuzla
volador
wafter
whodunit
wyre
zircon
adjoint
agonistic
altimeter
amphipod
andante
aquila
basidio##
bonsai
bucky
bungee
bunning
caloric
cantonment
carbo##
celluloid
cerebrate
cherub
cinchona
clink
codification
concessionaire
concomitant
conjunctiva
consistory
contravention
delinquency
deputise
doh
endoplasm
erectus
fabula
glacis
hagrid
harewood
hecto##
hibiscus
illegality
insatiable
jaunty
jingo
knave
lakh
lamellar
latero##
lentil
lessee
liberum
loong
mahant
mak
mitosis
moksha
mulch
mun
nada
nagara
neve
nock
nucleation
opacity
outsourcing
parsimony
pentathlon
peregrinus
picayune
pima
plagio##
politico
polyhedra
pontificate
priori
rancor
ratu
sade
sakai
sartain
savagery
scarves
scruple
shirk
shruti
skelter
sliver
sturt
talion
taxi##
telo##
tumult
uracil
urethro##
valse
vapid
vasculo##
ven
ver
villanelle
woodroof
##eme
##holic
##maniac
##rrhaphy
##sis
aerobatics
apostasy
arginine
bene
biff
bine
boardman
boride
brachial
brak
branchial
brio
cadel
caracol
chanteuse
chiffchaff
chino
collegium
cookiecutter
countermand
cuckold
cutlery
deutsch
devo
diapause
diastema
doggystyle
effector
enceinte
enjoin
facultative
fenestrae
frise
gabel
galore
glockenspiel
grimoire
heinous
honu
hybridise
invincibility
irritability
kempt
knickerbocker
koi
larceny
lavatory
lenticular
lido
limpet
luteus
mah
maquis
metastatic
mobisode
monocyte
nayaka
negara
nth
pedagogy
pendentive
pilcher
plowing
prescriptive
princeps
prosody
ramage
recrimination
repetitious
sheela
skittle
sushi
swale
taiji
toa
towne
trochanter
tryptophan
typographical
uretero##
valedictorian
vespertine
vestibular
vinaceous
warder
yung
##chore
abelian
acta
agro
amatoxin
amrita
amur
aster
banyan
beseech
birt
bodhisattva
brae
bunn
burnish
bursary
butane
calvary
campion
candie
caput
casement
chaparral
circadian
comprehensible
considerate
contemptible
conundrum
corse
coterie
crematoria
cyclopaedia
dang
debit
decryption
demonize
dermo##
deterrence
dhoni
dib
disinterested
expediency
falconry
ferox
fiduciary
flack
flapper
fluorite
fluvial
folic
foudroyant
furor
geodesic
gestalt
glutton
grus
hedonism
hierarch
homogeneity
hypotenuse
imago
inbred
incertae
insincere
intron
jardin
juste
khel
kudos
kush
lackey
lamia
laparo##
lawmen
liana
limes
lisp
locket
lotta
manes
manse
margo
menage
midships
militancy
mog
molasses
morgana
mujahideen
nigriceps
nuncio
olly
pamp
panache
parlance
pausa
pillory
pontic
protist
qadi
revelatory
rheumatic
rolex
rollercoaster
schlock
serendip
shraddha
snark
sphero##
stapes
sublingua
surfactant
tabor
tempus
tindal
topsy
trematode
vellum
verbose
villainy
##coel
##glot
abscond
alcalde
alga
ambulatory
amidite
aspartic
auger
aver
bandy
bibi
botrytis
bradleyi
brontosaurus
candela
casanova
cella
cervico##
chamfer
clamber
clapboard
cloke
cockle
contrapuntal
crisscross
cursive
deere
desiccation
dey
disputation
diwan
draconian
effendi
effluent
egregious
emaki
enamour
enol
enumeration
epoxide
erna
exoperidium
feu
flexion
fluoridate
fundie
furore
generalissimo
globalisation
grandes
gynecology
haut
hoon
hotelier
hypertensive
jailer
kcal
kokomo
lamellulae
lares
luciferin
luft
madder
mamilla
mantapa
mariposa
meitner
minima
moll
mudra
myocardial
myrrh
nob
notum
orgone
pater
pendragon
pentagram
pinion
polyadenylation
pons
pooja
quatre
radula
rayleigh
redact
regurgitation
rhombic
riegels
ruthenian
saltpetre
sanctification
satyr
skype
soli
sonority
spheno##
squab
sterigmata
stormtrooper
sucre
sulfonic
syne
theremin
truant
viscera
vortices
xenia
xuan
yakuza
##pexy
ado
amaryllis
apostrophe
appendices
asthenia
atrial
awning
balsam
beautification
bier
blare
boggle
calico
carotid
ceratopsid
charade
colloquy
communique
commutation
coolie
crabtree
dich
didymium
doth
endometrium
endothermic
excision
eyot
feldwebel
fizzle
fortis
fracas
frat
fullerene
gamut
garble
gayle
geisha
ghazal
gizzard
gonio##
greenbackers
grog
hafiz
hakeem
hijab
hypertrophy
hypso##
incubus
insolation
klang
kronor
kurti
lauan
leat
ln
lumina
malic
malware
marline
mast##
mechanistic
medicate
micelle
mobbing
monotonic
monstrosity
moulin
muon
mytho##
neologism
neur##
norvegicus
obstetrics
paludosa
papillae
parabola
patera
pelage
pensive
pewter
pilus
pinnate
plosive
porgy
prate
predilection
protuberance
provident
pus
pyo##
rebreather
reformatory
regicide
rif
romaine
salve
satoshi
scurry
secretory
shabbat
shih
splay
sticho##
streit
sulk
tardy
thalia
tonsure
transvestite
ubiquity
ugg
vas
wack
wold
yatra
zona
##phagia
ablative
adjuvant
adroit
alliteration
anthesis
apostate
arquebus
assiduous
augur
bangle
baruch
baz
bellini
bleat
bonk
bowsprit
brocade
calkin
calyx
catharsis
chamois
chemi##
cimarron
cinemascope
cleaved
coif
compensatory
contort
cupro##
dadaist
demure
diatom
dijon
domine
doune
dowse
emote
empathetic
epidermal
excoriate
extrinsic
facile
factorial
fenestra
formaldehyde
gawk
gell
harmonise
hatha
homeostasis
impotence
integument
isotherm
jackpot
koen
lank
leaky
lethargic
lyra
machicolation
malachite
mastoid
militarise
misnomer
modulus
moreland
mullah
mutagenic
nemertea
numerology
pastries
pediatrics
planchet
platitude
postscript
pterygoid
pyroxene
rebbe
reichsmark
retcon
retinoid
rollick
rubrum
shite
sinter
skeet
squawk
strangles
stuffy
supposition
tac
tepe
tetrarchy
tetris
transitory
tryst
tum
vibro##
virginal
yumi
##ean
##sol
acerbic
acoustical
actuate
alfalfa
alliterate
animist
ankylosaurid
approbation
arioso
aspirant
asterism
avi
basilisk
benediction
biggin
brunch
capelle
carboxy
cementum
chorea
concordat
convoke
coumarou
criminality
cutesy
cuttle
diatribe
dulce
dumpty
eben
epistolary
flite
foxe
garbo
gibbet
gist
gorse
gusto
haram
harlot
heartwarming
hollaback
homunculus
hula
hygroscopic
iman
impermeable
impugn
katyusha
kebab
labrum
laterite
lidge
mano
masala
memoriam
monadnock
multiplicative
nihilism
nona##
octavo
octet
octuple
ople
oratorical
outcropping
palgrave
papaya
patina
phalange
pineal
pita
plait
porosity
procto##
propitiate
prorogue
pullin
pyruvate
quandary
rapporteur
reflux
ridder
sarangi
satanist
saur
schlumbergera
shojo
sie
singe
slurry
spleno##
squamous
tableaux
tagmata
tallow
trompe
ulema
venation
venereal
vinny
viticulture
vivacious
washout
woomera
xing
yogini
##adelic
##tard
aardvark
adiabatic
aedile
aerobics
aesthete
alakazam
anabaptist
anathema
anorexia
arval
ascomycete
bama
blackmoor
bravura
bretwalda
bru
burly
burp
candor
capulet
clang
cloudbase
colloid
convulsive
cumulonimbus
demersal
desiccate
diatonic
dis
dogmeat
dromaeosaur
duopoly
durance
durbar
dyad
eidolon
emanation
envelopment
facetious
facie
falciparum
gaby
gloat
gnarl
goan
gravitas
grinch
hardboil
herpetologist
hindfeet
iambic
internecine
ischium
jharokha
jiao
jour
joyner
kabuto
katana
ker##
kingside
llano
lorisoid
machismo
mammo##
marinus
marla
martinet
melaleuca
muskie
neuve
nucleophilic
oden
operability
ostinato
parametric
pattycake
phloem
pisci##
pommel
poodle
poule
pyran
quadrille
resection
roundtrip
salacious
sarkar
seneschal
sheva
shrivel
sleaze
slog
smolder
sphincter
spica
statin
stingaree
sumac
sunnyside
talonid
tendril
tetanus
tink
titanosaur
tureen
veld
ventriloquy
willey
yah
accra
antillarum
archon
bary##
baso##
beaucoup
bloomer
brady##
canarium
chelicerae
childer
clino##
cockade
collation
collegian
conidia
contraption
convalescent
copulatory
cubist
debutante
decal
dentata
diametric
divan
dunce
eke
entendre
enviable
erg
esthetic
eury##
excitatory
fete
fils
flatulence
flitch
flume
fro
gauze
gilli
gracias
gripe
hornswoggle
inculcate
jell
ka##
katara
knell
kvitel
lath
laver
limno##
litigant
lysin
machinist
maelstrom
mastication
medica
merlot
merryman
metacarpal
minke
minuteman
mitten
morose
muni
muslin
okra
omni
opiate
pariah
parturition
peau
perdition
perm
pinkie
pirai
pontiff
pout
predestination
proconsul
proteome
pruinose
puritanism
pyrrole
quidditch
regolith
reshot
rhesus
s##
sanguine
scabbard
scrounge
secondhand
selenite
selkie
septate
shrive
shui
sich
soca
stato##
stig
styrene
supremo
symphysis
tala
theosophical
toho
tondo
toxification
triarii
trigeminus
trinitarian
turpentine
tut
ummah
uvula
veno##
vestal
vilayet
xylem
##lalia
##rama
##tastic
absorbent
acanthocyte
acculturate
actuator
acupuncture
adieu
adreno##
aga
alate
automata
bink
bistro
blanch
bonne
brusque
bucentaur
cadenza
calumet
campanella
canter
carvel
cava
chordate
cilium
cist
closeup
coley
congruence
coot
couth
cowie
defecation
desirous
deuterostome
diable
dicta
diminution
discursive
drow
effervescent
elix
eurythmics
evidential
expletive
extremis
faro
ferrite
florist
fop
forma
fuddle
gnatho##
grift
helot
hubris
imperious
ischemic
jif
jitsu
juvenal
kucha
lamprey
mallee
mandapa
maraca
marigold
matings
mech
merino
mesoloph
mexicanus
mignon
mirador
nuke
oases
obfuscate
obstetrician
olde
omicron
opulence
oude
paedophile
palomino
parodic
pedipalp
perceptible
phenethylamine
pinnae
pinnock
pistil
powter
prance
presuppose
principate
privity
psilocin
pygmalion
quoin
ragamuffin
recension
recto##
refound
rideau
rik
roker
sansa
sauropodomorph
sclerotia
sestina
shole
shtick
sil
skene
softworks
stylet
subjection
suffuse
swart
syzygy
tana
tarp
tele
tincture
transfix
triage
trimester
troodontid
tunny
underlain
undie
vicariate
viol
violacea
violaceus
waqf
##cephalous
##philiac
##wad
anadromous
antagonise
antithrombin
apoptotic
arabesque
ard
auricula
avis
avouch
bandar
bicolor
biotech
birk
bittorrent
blacknose
bobsled
bola
bonito
boor
borgo
bulimia
buteo
callow
camcorder
caviar
cavort
choano##
cima
clonus
codeine
coed
conspiratorial
cortisone
croc
crocus
crypsis
cume
deadpool
decimation
dereliction
des##
disjoint
distemper
dory
dower
druk
fifi
flavin
floodlit
flugelhorn
fluoresce
foy
fug
gaff
gaffe
geno
gobi
grandis
gremlin
guillemot
haka
hematite
hieratic
hoodening
horoscope
hyperbola
iatro##
interject
jejuno##
jennet
jeweler
kilter
lief
lorelei
manger
mannan
manton
maritimus
maudlin
mendelian
mesmerise
metatarsus
monism
morte
naa
navarin
nitrous
nocti##
nuckelavee
odious
oleo##
onycho##
oread
osmosis
owings
pala
pampa
parva
pepo
pestilence
porphyry
ppb
primeval
prophylactic
puerile
rath
restorative
reveille
rhabdo##
rima
rincon
saar
sacrosanct
sadomasochism
seax
self##
sepal
sil##
simile
sinusoid
squalid
strophe
supercilium
swashbuckling
sycophant
thallus
threonine
tine
tofu
tribo##
umbilical
ungual
uptight
vassalage
virulence
wainscot
wayang
wrasse
##preneur
abysm
ange
animus
arbitrage
armiger
arp
asphyxiation
azote
bade
bagh
banality
begat
bessa
bimbo
blaxploitation
bly
borane
bulgur
careen
catenary
chasse
cheeseburger
chrysanthemum
chymotrypsin
cnidaria
cohabit
colpo##
contributory
coromandel
cosey
cutis
daman
dative
declaim
delectable
dioxin
dumpster
emulsion
equilibria
escheat
esperanza
flagellum
flautist
flay
fossilised
gallopin
gossamer
griveaudi
honk
hooray
ickle
ignominy
ileum
impressionable
impute
infanta
integrable
irido##
iwa
janissary
janney
kir
koto
laconic
lasso
lectern
lingam
lithiasis
lorimer
maat
malady
mastaba
meri
militarization
mundu
mura
muscovite
muscovy
myopia
narcissism
nare
nemat##
nervosa
ning
nola
novaehollandiae
nowell
oblation
ogee
oi
ola
outgrew
oxy
parrilla
participle
perfunctory
phylloxera
plaisance
pneumoniae
porcini
potlatch
procreation
prophylaxis
proscription
puke
quaestor
quart
rachis
radome
rakshasa
reprove
restive
ret
rivoli
rockaway
saltmarsh
seigneur
sellar
serrano
servo
shastri
shimmy
skitter
smock
smudge
squirm
steller
stoma
teethe
teleo##
teme
thespian
thrombo##
tien
toponym
tox
tuckahoe
upperclassmen
vachana
vanadic
veritas
wim
wove
##cardia
##nik
aberrant
africana
amaro
ancien
ano##
antigone
apsidal
aq
avi##
bac
berm
blvd
bolling
bolo
boric
brasiliensis
burka
businesspeople
caddis
cailleach
capello
carabineer
carnivoran
cartulary
centra
centralist
chara
ciao
circumspect
compagnie
contortion
cooch
crystallise
dapper
denouement
dentin
despotic
drivel
elocution
ent##
expository
feoff
finery
foci
fougasse
frisbee
fulla
galvanic
gharial
glycerine
gracile
hamada
hanky
hoochie
hora
hygro##
ichthyosaur
icky
ig
imbibe
imitative
incarceree
insinuation
intercalate
isobar
jocular
jud
kale
koko
kt
labio##
laika
lanceolate
latinize
laye
libido
limber
loess
maenas
mandala
mandamus
martlet
matha
mee
metazoa
mex
minutiae
monazite
motocross
nisei
novum
osteoporosis
ostia
ostracise
pedicle
phospho
phumdis
picaresque
pogue
poisson
poltergeist
promulgation
quib
raison
rapier
relaid
rescript
reval
rollout
rubric
ruminate
sapiens
saya
sequitur
soken
sommer
sperling
spinach
stane
stearic
subtropics
sulfonate
superfund
swab
sweetums
sylvestris
synthetase
tendinitis
tigh
trellis
triangulum
trypano##
typist
tyrolean
vindex
virescens
vive
vrata
yad
yano
yellowhammer
zamindar
zoot
##cephaly
##physis
accipiter
agnus
ambon
amnion
apprise
arsenide
asparagus
avialan
azo##
blurb
brattle
braze
bunton
burdon
burnout
buss
caddy
canker
caries
carpo##
carucage
chacma
chez
circlet
concertante
coolio
corruptible
crex
culpability
dastard
defray
diazepam
didi
diegetic
disinfect
distend
disto##
dominator
enormity
entoproct
erasure
ethn##
exhilaration
festoon
figment
foible
fook
forceps
fulgens
gallus
geodetic
glob
godchild
goto
gringo
guyot
hajduk
halal
hamiltonian
hamzah
hg
histidine
huck
hummus
hurrah
imitable
ineligibility
invulnerability
ischemia
jubilation
judoka
kananga
kingsmen
kiri
kokoro
kundalini
lascivious
licentious
lithe
lotte
lyse
marchioness
marsin
maxillae
meniscus
miscegenation
moline
molybdic
morita
morro
mozzarella
murti
musculus
naches
nebular
necrotic
nicotinamide
nieve
nodosaurid
oni
ordre
oribi
ossicle
padlock
palaeontology
palimpsest
panhellenic
parasol
particulates
pendulous
persimmon
peziza
philomel
pleo##
privation
prosauropod
provocateur
pterodactyl
punctata
purveyor
rabbinic
racemosa
recalcitrant
reticence
retrench
revulsion
rhiw
rioja
runt
samadhi
santorum
shippen
siddhi
signor
simsim
smoulder
snatchers
sphagnum
splotch
sputum
sump
taiga
tallboy
tambura
tapas
tench
texte
tomoe
traversal
travertine
ulla
underpants
upazila
vice##
weeke
##centrism
##sicle
abitur
adduce
agglutination
amphorae
anaesthetic
anise
annulus
aplomb
apsis
attaint
babbit
bagpipe
bakhsh
bint
buckwheat
chana
cheong
chlorate
chor
civet
civility
coitus
concierge
crossbowmen
cubism
declarative
dedicatory
denude
drongo
dsrna
dubh
dumpling
easement
ecclesia
elo
emcee
endemism
esophago##
fatu
fatwa
fitt
formyl
frailty
gamelan
gata
gazebo
gcd
geist
glasse
graphene
guardant
gundeck
gynecologist
halas
halibut
harl
heil
hella
hemagglutinin
hoke
holdover
interjection
intermedius
ivey
jap
lacuna
lagrangian
lanceolata
larp
lazuli
liven
llyn
lovat
magnesia
masochistic
meistersinger
mell
metrology
micron
microrna
millipede
ministerium
mnemonic
monsignor
muff
nimbus
oomph
orientalis
orthonormal
otariid
outdone
pectin
peon
perestroika
perjure
pernicious
pharyngitis
pidgin
pock
poindexter
populism
publican
publique
pulsation
rakyat
reconstructive
rectrices
regius
resplend
rhotic
salticid
sark
sere
shim
shod
shoji
sig
slouch
smoot
sot
stalag
strew
sylvanus
synchrony
syncretic
taciturn
taka
talus
taw
therapeutics
thorp
thrombotic
tibial
titillate
tormentor
tutti
umbra
upholstery
ursus
vaunt
ventricose
verticillata
vieja
wald
warmblood
##azepam
##ocracy
adjudication
alexandrine
anthra##
armorer
arthritic
artizan
astringent
avarice
banzai
bombe
bumiputra
cacophony
carling
cashmere
cavalcade
centrum
chondrite
chutzpah
cine##
clef
clemence
clod
compleat
controvert
copula
crispus
crud
curiae
cycad
dace
dandi
debus
derringer
dex##
disenfranchisement
dissolute
domini
dominus
dramatics
dyslexic
esculenta
especial
esta
exaltation
existentialism
fain
fico
firefox
flaccid
fortissimo
gain##
ganja
garda
glaciology
guarantor
harpy
hattah
hematoma
hoodlum
hooky
houndshark
hutch
immemorial
imperceptible
inordinate
interpretative
interrogative
inveterate
izinduna
jeju
jilt
judicature
ker
kuru
lata
lenis
letdown
leucine
levity
ligation
literati
locative
lotion
mansard
marchand
mase
meister
mesentery
microraptor
moab
modulo
moone
mucilage
mus
musicale
mustelid
negotiable
oatmeal
obviate
oceanographer
oct##
operandi
otay
otome
overlain
ovipositor
palyno##
pantheism
parvo##
petersham
phreno##
pila
pileus
pinna
powerline
primitivo
rado
ravelin
riad
rosh
saman
sclerotic
sed
sensu
septicemia
shrunken
spina
spokesmen
spyder
strangulation
stromboli
styrofoam
sundari
supernature
tabula
tapaculo
tarpan
theoretician
thermic
trepidation
trigonid
tubulo##
tumulus
tussle
urbane
vacuous
vancomycin
vertue
victrix
viscid
visco##
vomer
wellcome
wigwam
wont
xanthine
yuga
yuko
zither
##ality
##plegia
##setter
adage
adulter
advowson
aerate
alcazar
aldosterone
anabolic
architrave
asana
baile
bazar
becquerel
boing
boodle
botkin
capensis
capps
carus
chemin
chuan
chuang
confraternity
cooter
corrie
crepe
cryptologist
cubitus
daff
dally
dandelion
dewan
dialyze
dobbin
docket
docudrama
domesticus
dowdy
ealdormen
ergosterol
eyalet
fallible
ferri##
fess
flexor
frivolity
frizz
galago
germanophile
gigolo
glitzy
graben
gramme
hab
halberd
headman
hemipteran
histrion
hoddle
humeral
ilia
incongruity
incredulous
indign
inna
insectivore
iridescence
isinglass
jacky
kevlar
kino
lacerate
leptin
libbra
lipase
longo
loph
macula
mammary
melampus
milch
misterioso
monosyllabic
mot
neonate
nether##
nifty
oeno##
oligarchic
omnipotence
ooser
orthoptera
otic
papadam
patt
phosphonic
phyco##
pogo
polyhedron
propylene
pygmaeus
rabble
rambo
recumbent
registrant
resiliency
risque
robur
roto
ruber
rumba
sambo
sangha
sarcophagi
semiotic
smatter
sog
spino##
stickle
sucrose
sus
tania
temporo##
tera
tergite
testa
thanato##
trabecula
trammel
turmeric
uri
vimana
vitae
wench
wifi
zo##
##andry
##escent
##lepsy
##odynia
##thermy
abrade
adenoma
allelo##
allopatry
ambergris
amigos
appetize
argentan
arr
ascites
autobahn
aval
awl
ayatollah
baculum
betel
bilirubin
boba
bouffe
brolga
bryophyte
cackle
caravanserai
carouse
cashew
chiropractor
chromite
commissure
compaction
coomb
copia
coppice
creel
critter
culm
deimatic
demine
dexterous
disaffection
disinfectant
dutchmen
easel
eclogue
edu
eir
enteric
faithfull
foregoing
francolin
furst
fustian
galleria
gammon
ganna
gau
giganteus
giron
gluttony
gonorrhea
halcyon
importune
indicus
ineptitude
irreverence
jak
jeunesse
jeux
jumbotron
justiciable
kanaka
kilogramme
lacustrine
lage
latus
laxative
limbic
luchador
luxuriant
makar
mangold
manzanita
masha
milagro
mochi
naja
nauseating
nostra
notarize
nudum
obscura
oleic
oreille
orienteering
pasteurize
peptido##
peritonitis
petulant
phene
phosphite
physiognomy
pliable
portability
probabilistic
propositional
psychro##
ptero##
pubescent
puella
putty
quadrate
raster
razzle
rupestris
sacrilegious
saxaul
senton
sett
sextuple
shahi
shalt
shiki
shiraz
skulk
soh
spandex
stank
supine
syphon
tampon
taxonomical
terp
throe
tinto
tono##
trachyte
trapp
trivium
trodden
umara
underwritten
undine
vanitas
variegata
venal
venta
venu
verbalize
viridian
visuo##
yea
zyme
##androus
addle
alumina
alumna
ameer
amnio##
anodyne
ascus
ata
beaker
befell
bellicose
bellum
bibb
bildungsroman
bogue
brassica
brindle
butchery
caccia
calculable
calligraphic
carjack
cassowary
causa
challis
chiaroscuro
chickpea
chimp
chlamydia
clack
cleeve
colo
coloratura
columella
coomer
corfe
cotinga
dais
delimitation
dink
disgorge
dramedy
duralumin
ectomycorrhizae
edify
emasculate
eschatology
esh
eutectic
fecund
federative
feldspar
fovea
fulcrum
fumaric
funiculus
gauleiter
ghee
glasnost
glucagon
gordian
gori
gurl
hashish
hele
hemolytic
heterodox
hin
hob
huckster
hyalo##
idiocy
ilk
indiscipline
intelligibility
jacuzzi
jib
kagura
kanga
kashrut
kerogen
kine##
krait
lamentable
lepto##
linearis
lodgment
loofah
machiavellian
mademoiselle
manet
mazurka
millenarius
milli
momo
monocle
mou
munia
nance
niggle
odometer
ordinator
orrery
palmas
palmitoyl
paresis
patroon
phallo##
pharmacopoeia
physico##
piperazine
porno
pragmatist
prim
proclivity
psoriatic
pursuivant
putt
pyrrhic
quaternion
rada
ramshackle
remunerate
riband
riche
rooke
saccade
schismatic
secretarial
seesaw
senatus
sigil
sisu
spinosaurid
sprig
squalor
squelch
stannary
sterna
stetho##
sunnah
sympatho##
tabby
tarry
taser
thine
tibicen
tock
torpid
torrid
tortuous
trama
transfigure
transubstantiation
trocho##
tse
turgid
um##
uranyl
vallance
veggie
velo
vitalis
waft
wali
wigg
yarborough
yuppie
##gasm
affectation
afferent
affray
alimony
amphoteric
ampulla
animatronics
antithetic
approximant
armagnac
atto##
baluster
belli
besant
bonis
bouyon
brahmana
burl
casuarina
celiac
cellophane
cestode
chal
chit
chivalrous
clairvoyant
cognize
combi
compo
conciliate
contrail
corroboration
coterminous
cumin
cutlass
desultory
dibatag
dictation
dino##
divorcee
domus
embolization
entrada
ergative
ew
exasperation
fah
febrile
fennel
ferrocene
fester
fibrillate
fille
gabbro
gadolinium
garderobe
gasket
gerbil
ginkgo
glucuronide
glycero
goitre
gymnosperm
gyre
haematopus
haline
hammam
haro
humoral
hygrophanous
hymen
ileo##
iliac
inaccessibility
intubate
iwan
jat
jools
jugulum
kiki
knap
kookaburra
kshatriya
kutch
lashkar
lecher
lepidus
liftoff
lol
magisterial
mander
maniple
mayoralty
mazama
merc
mesquite
mmol
monophysite
mubarak
mucin
my##
mysticete
nangka
newcomb
nickelback
nitrox
nobile
norovirus
nuit
ocelot
oddjob
ology
opportunism
orison
oscilloscope
outran
oy
palato##
palindrome
panky
parthen##
partook
passacaglia
patagium
peony
periodontal
perkin
philopatry
pistachio
pitchblende
plaine
plein
polyphemus
prebendary
predestine
preeminence
prostaglandin
pudendal
radiata
redemptive
reticulo##
reus
rhodian
rhubarb
rinderpest
salmonid
saree
savor
scorbutic
scripta
sculpin
seki
shand
shari
shenanigan
signet
solute
sperma
stipes
straightaway
strepera
synapsid
syntheses
taffy
tahr
tamarind
tambora
tew
tio
toccata
tongs
tragus
transact
trenchant
unum
utero##
vagus
vanadinite
ventriculo##
vervet
vestibulo##
vulcanize
wanty
willet
##thymia
agama
agouti
ailanthus
albumen
allene
angiotensin
applicator
aridity
astragalus
baila
bateaux
beholden
berra
biot
bodice
bodie
boreas
brannigan
cdr
chattel
cheirogaleid
chryso##
cladistics
clast
clinker
congeal
connexion
constancy
coochie
corbeil
cracow
cred
dancin
deferential
dhole
diffract
dishonour
drudge
dy
eame
emend
emetic
enunciation
ephedra
equerry
eschatological
etoile
exegesis
feare
feto##
filbert
firman
floret
footy
forthwith
fritillaria
gehenna
gerrit
git
glioma
grandiflorum
grossa
haggis
herse
horry
humvee
hymenophore
immaturity
info##
ingress
interminable
intransigence
joist
kermode
kes
ketide
khedive
kpc
larder
leal
legit
linguine
maidan
malfeasance
matanza
mediastinum
melancholia
melba
meningeal
mezzotint
midwives
mim
misanthrope
mitotic
mollie
mortification
nullity
nuptials
obdurate
olfaction
omelette
onerous
onus
parch
parenthesis
paroxysm
paxillus
peavy
piedra
prepaid
pyjama
quire
repressor
respirate
rhyne
ria
rosin
scoria
scrutable
seraph
silencio
sinfonietta
smectic
snead
sphingolipid
spindles
starosta
statics
stigmata
striatum
strombolian
substituent
sulfa##
sylph
synecdoche
teat
tode
toroidal
tragelaphus
transference
traumatise
tulsi
urate
vasectomy
verisimilitude
viaticum
virga
winge
wombat
woogie
yerba
yodel
yuka
zit
zydeco
##dyne
##mycin
##nap
##rrhagia
##splain
aah
acetaminophen
aguayo
aliyah
angina
apiary
appanage
arco
artemisia
asphyxiate
australiensis
aventure
babbitt
backgammon
bawl
beatnik
beneficent
bian
bil
bobbin
bomba
burin
calamine
cantina
carboxylation
casserole
cauterize
champa
chauvinism
cheviot
chillen
chipper
ciliate
clinico##
cloche
cognizant
colle
comme
communicable
conv
cray
cristid
culmen
curmudgeon
daguerreotype
dall
dalliance
debar
dentine
dern
discoloration
disproven
distillate
dobby
donat
doody
doublet
dumbfound
elation
emporia
engorge
erg##
ergot
ern
erudition
erythromycin
esprit
exigency
exocrine
exportation
extensible
faun
ferus
fetid
fila
flabby
fluoro
gammarus
gardenia
gargantuan
gey
giga
glib
glucan
glycero##
gratia
grazier
grisi
hast
hime
ilex
imperio
incontinence
indium
inhume
interventionism
intransigent
jann
jezebel
jowl
keng
kibbutz
killigrew
kinematic
koine
lawe
lebensraum
leghorn
ligate
linnet
mafiosi
malaco##
mangan
manitou
maule
meninges
mensa
miasma
mineralise
misdemeanour
mogwai
mote
navvy
nebel
noto##
olefin
oligo
olla
param
pardy
parenchyma
parterre
perspire
phat
pilosula
plainclothes
polonaise
postpartum
ppt
presumptuous
preternatural
procreate
purpura
qualia
rade
rambunctious
remonstrance
rerum
rheumatoid
sacbe
samaj
sativa
scorpius
scree
scrofula
sella
semper
serous
serrata
shikari
shive
shoo
siliceous
sirocco
solubilize
som
spatula
spinney
sprightly
staves
strick
strix
struma
subservience
surfeit
tapetum
thelium
toppings
torp
trichome
trinket
tyger
typhon
velocipede
vintner
vireo
vitals
voxel
wasserman
wey
wigeon
winnow
woodlice
xiphias
##aster
##opia
##otomy
##rix
abbacy
admin
aereus
aeruginosa
altitudinal
amala
anthologize
anxio##
apothecia
arc##
arene
areola
argumentative
aris
armature
askari
assumpsit
aurorae
auton
ayurveda
baguette
baji
bak
barbel
bestiary
blear
bolin
booke
bosque
brokeback
callus
capstan
cardamom
cayo
chasten
chelating
chock
cloture
colla
collegial
com##
condescension
consummation
conventicle
coq
coster
cours
cower
credulity
cursorial
dah
datum
declension
degen
dene
derecho
deutero##
diastole
dougie
dynamo##
egoism
egotism
ephemera
esports
espresso
exarch
fayth
ferruginous
fescue
fibrillose
flotsam
frack
fritillary
furtive
gadge
gane
gasteroid
geet
geezer
generale
gimbal
glabrous
gnosticism
gopi
gove
grampus
granma
greylag
hadrosaurine
halim
hantavirus
hed
herrenvolk
humanise
hydrolytic
hypnotist
hythe
ibuprofen
imide
imino
indigent
inf
infliction
inosite
irreligious
javanicus
jibe
kaolin
katal
kentia
kinesia
kish
labile
laudanum
lemme
linesmen
llama
maw
memoranda
minish
mirabilis
misericordia
mito##
moccasin
modello
modulatory
mofo
muggle
mullein
nalla
nanticoke
nihil
nuchal
octahedron
osseo##
ossification
paich
palazzi
parka
passe
pembina
perpetuation
persecutor
phlegm
pierrot
pikemen
poh
poro##
procrastinate
pugilist
pyelo##
pylorus
quadriceps
quine
quinque##
rankle
recurvature
redrew
referable
repo
rete
reve
rotula
sarabande
scrooge
siloxane
simony
slavonska
snitch
snooze
softcore
specular
sportspeople
stalactite
steinbock
strep
striatus
strombus
swill
talc
tallis
tauto
taxidermist
tethys
theogony
thon
topaz
toxicant
trichinopoly
trounce
tvs
uitlander
uke
ulcerate
ulu
umbel
uridine
vaseline
veena
walkeri
wynter
wyvern
yonder
##biotic
##fag
##yne
ablution
adnexed
airtel
ali##
allozyme
allusive
ambulate
amniote
anglais
anoxic
ant##
arachno##
aristo
aro
artichoke
artiodactyl
aubergine
autochthon
avel
avifauna
bandana
bashi
bathysphere
bizarro
blakey
boolean
bourn
bulla
burgle
caerulea
calamitous
carex
carrol
catamaran
catarrhine
cavan
chantilly
chloro
choroid
chowk
chuckie
clathrate
clitic
cluck
cnidocyte
comely
communis
conulid
cruse
cubby
cunnilingus
datable
deductible
destin
dhoti
diamante
digress
dirham
distaff
donde
drachma
drudgery
duroy
dynast
ectopic
ectoproct
eme
emporium
engle
ennui
ephor
epoxy
evapotranspiration
exothermic
fenestration
fistula
flamboyance
flava
flit
fob
fps
fusiform
gamba
glomerular
gosh
gratuity
gular
habituate
howdy
illegitimacy
iniquity
invoice
irrefutable
issa
japonica
jizya
kinesi##
knead
lamination
lapis
latitudinal
leva
listeria
lomas
luminal
malevolence
mawk
medusae
megara
mildew
missive
moderato
mohr
monad
monogenean
monophyly
mortis
muy
newscaster
nosferatu
obliteration
obscurus
oedipal
opuntia
oxidoreductase
patroness
pavlova
pentameter
peripatetic
perrier
pesky
petunia
piastre
pimlico
pizzicato
plexus
plunk
potentiation
prelature
progestin
proximate
qasr
quad##
quatrefoil
raden
raptorial
ravenous
recto
regale
regio##
regnant
remonstrate
repechage
reportage
rhinarium
riposte
rubicon
rusalka
sais
sanctorum
sate
sauerkraut
scalpel
scatology
sclerotise
seltzer
sentience
septo##
shrubbery
sidereal
simper
skite
smarm
solidus
spheroidal
spouting
sprocket
squib
squish
subaltern
superposition
supra
syrinx
tanah
tattle
tirailleur
trad
tristis
trove
tsaritsa
tsuki
turvy
ulama
valium
variate
varroa
vibrancy
vieux
vitiligo
vitrify
voe
wain
wherry
whither
windlass
zucchini
##theca
abo
accelerometer
accompli
accoutrement
accumbens
alleviation
alpinus
amari
ambulation
amira
amygdala
anser
anterograde
apico##
argosy
baal
barbarity
befallen
bellhop
bev
bleu
bouillon
caboose
calamari
caponier
carny
carpel
casein
cauda
cheekteeth
chickadee
chota
cinematograph
cipollini
collinear
colossi
comforter
conglomeration
coquette
corella
coruscant
creosote
cuss
cyno##
dapple
decant
defassa
demerit
dere
deshmukh
despondency
determinate
detox
dichotomous
dildo
dimery
disorientate
dort
dropsy
dulcimer
effusion
eld
encapsulation
ent
explicate
fanlight
faucet
fellatio
felsic
fluster
fmri
forb
frau
fritter
frontiersmen
frugality
frugivorous
fugit
futon
geminate
heald
hexyl
hidrosis
hilarity
holo
hori
hornbeam
horology
hypnotise
immolate
incredulity
indivisible
ineffable
inseminate
invective
iru
jackhammer
jari
jnana
junket
juridic
kanto
kaya
kobalt
krai
laban
latrobe
liane
lieutenancy
linseed
lint
lucidum
luteal
lypso
mafioso
maintainer
majid
manacle
mandi
manhua
marsala
masterplan
maven
meader
menorah
metamorphism
militar
mistral
myriapod
naff
nb
nectary
nek
neoteny
nucleolus
onium
opistho##
otus
ovale
overwritten
pacifica
panto##
papule
parisienne
paten
penitent
peptic
peritoneum
phantasia
phasma
phoretic
piebald
plastron
pluto##
poesy
poof
poonam
poussin
precentor
profligate
pseudomonas
quince
quincunx
ramus
rappel
rectilinear
refrigerant
resect
retablo
revetment
ribald
rikishi
rotund
sacro##
sagacity
sago
salix
saltillo
saros
satrapy
scotti
scuff
seductor
sensei
silicic
simulant
skiff
smooch
snakepit
sodom
sorb
spasmodic
starstruck
steato##
stegosaur
stevedore
stiver
strategize
subah
swaraj
swelt
syair
synapto##
tapa
tasso
teflon
telepath
terrestris
tilak
tomentose
tomentum
torosaurus
transfect
trunnion
vacuity
vedette
villous
volute
waif
waile
winne
wonky
woolsey
yagi
yaoi
yazoo
zama
##desis
##phily
ack
adad
addendum
adhan
adze
affricate
alb
anesthesiologist
apatite
apsara
aquatint
ardor
astroturf
austenite
autotune
auxin
axo##
bajo
barbital
biblioteca
bodhi
boxscore
boza
brassiere
brevis
brode
bronchi
bung
bustier
cajole
cardial
cardio
caspase
castrum
caudo##
chav
checkout
clypeus
collet
combinatorics
concretion
craic
cromlech
cruzi
cubit
cyanescens
cydippid
degli
deli
depute
despoil
donjon
dopant
economize
efficacious
egress
elon
ende
endocytosis
ennea##
enteral
epacris
estimable
excito##
extirpation
fakir
fata
femora
fluviatile
foederati
foregone
fusible
geriatric
glace
glutamyl
gonadotropin
gourmand
grapho##
gurgle
gyro
haggerty
halfwit
halyard
hedonic
heli
heriot
hexadeca##
highpoint
hok
hornblende
horridus
hortus
hypophysis
hyrax
impressa
indigestion
infalling
kampong
kapellmeister
kapo
ketch
kitab
kongo
krum
kuhl
kulak
kunai
kya
lactam
ligase
linoleum
litho
locomotor
locution
mangel
manticore
meller
mimesis
minimax
mishmash
moola
muscae
muscarine
muscimol
mustela
nin
noa
noetherian
oligochaete
omniscience
onsite
oo
ossuary
paci
palatability
pecuniary
peptone
perfuse
peristyle
peseta
phocid
piggyback
pipette
pizzeria
plasticine
plica
plicate
pompadour
ponzi
prise
prograde
prurient
przewalskii
purpurea
pyrophosphate
queasy
quin
ramous
ranchera
rel
repandum
riva
roto##
ruffin
sabi
sacrilege
salvinorin
sampan
sanctimony
satiate
saurischia
sclerotium
scoto##
secant
sharecropper
shoop
sipe
slob
snee
sockeye
sodden
solvate
sombrero
sona
sonne
sonorant
sorel
sphygm##
spondylo##
stalagmite
stanno##
stith
sup
swindler
syndicalism
taoiseach
tawdry
tedium
thimerosal
tibio##
timema
tirtha
transmigration
tripe
trochlea
tubercular
tyer
urs
vagino##
valorize
velite
vicus
vulgare
whin
whirr
withe
wobbegong
yajna
zoic
##oecious
##ress
abseil
absinthe
acclimatise
acetal
actus
adequacy
aggravation
aiguille
aliment
amoroso
ananas
anatomic
aquilonia
archi##
artemisinin
atabeg
atalanta
banke
basehead
bauxite
bengalensis
berserker
bhajan
bootcamp
bpm
brac
bucco##
buddhi
calabozo
californica
capacitive
castrato
cataphract
ceph
cerevisiae
chaise
choate
ciliated
cineplex
cinerea
clinal
cloven
coloniser
commodify
complainant
conflation
conjugal
contractile
cordyline
cosy
creatine
crypto
cuarteto
curable
cuspid
cyano
damascene
darke
demerara
destitution
dewclaw
diabolus
ditzy
doab
dosimetry
dreck
dregs
eagre
elephantine
elute
embarcadero
embryological
enchantress
endocast
enfant
epicurean
epistemic
epithelio##
exa##
explosivity
farad
farthing
faubourg
fieldfare
figo
finis
fitful
flambeau
flatboat
flexure
foraminifera
fugazi
gamergate
generis
gis
gliadin
goggle
guber
gummi
gyromitrin
halfa
halligan
hamon
hexa
humdrum
hysteresis
ignoble
imbricata
imbricate
imidacloprid
inalienable
inborn
informality
informatic
infructescence
interferometric
investigatory
irascible
jussi
kaddish
kalpa
kirsch
kittiwake
kolo
kosmos
kurma
lagopus
limn
linoleic
liquorice
loach
longue
lothario
luma
lye
maestra
maior
maquette
marksmen
masseter
matin
mesenchyme
mesic
meze
missal
mither
moria
moyle
murine
muzzy
nomina
numeracy
nutritive
ocellated
ombudsman
opsin
orde
oss
ouroboros
oxi##
pangolin
papier
parotid
pedagogue
penetrative
pestle
phantasy
picaro
pickaxe
pileipellis
pinchbeck
pleurisy
pnictide
preceptor
prognostic
prolapse
pronominal
pucker
putrefaction
pyjamas
qaghan
quadr##
quantification
quinta
radix
rais
reactant
recherche
referenda
remiges
resorb
reverential
rhodo##
rhomb
rhyl
rickety
rind
rok
romanise
rutile
salivate
salutation
sassafras
schistosome
scupper
senescence
serotinous
skeeter
slake
solemnize
stomata
stratospheric
strychnine
stupefy
substantia
superscript
sutler
tabular
tanuki
tapioca
tarsi
tattva
taut##
ter##
tesseract
thalamo##
thapsus
throstle
thurrock
titanosaurian
toluene
tomcat
townsmen
toxicological
treacle
troppo
tuk
turd
twee
underclassmen
urinal
vagary
varius
vesical
villar
viridis
viscero##
volante
vroom
whey
wyandotte
yaksha
ylide
zirconia
zombi
##ass
##front
##meister
##nym
##tactic
abdomino##
abjure
advection
aeration
agglutinin
ais
alphanumeric
ambidextrous
amphitrite
amphora
amplexus
ampullae
angelique
anker
annis
araba
aspergillus
auxo##
back##
baldrick
baluba
baramin
bashful
bimini
bindi
blather
blatter
bldg
boatmen
boop
bos
bould
bowdler
breve
caddie
carburize
cardinalate
castellated
cheela
chorio##
clastic
clostridium
clunk
coalescence
coddle
cogent
conformable
consolatio
coxa
credulous
cristatus
crockery
cryonic
curio
cyanin
cyberman
dacryo##
dagmar
debark
desperado
detritivore
dither
duro
eider
empathise
epoxy##
exec
exemplification
exhalation
faience
fangle
fornication
frett
gaddi
gander
gaur
geranyl
gibanica
glum
gnash
grandy
grisaille
grovel
gung
gyle
gynaeco##
hake
haveli
helices
heliox
hematology
hemeral
heritor
hoagy
honoris
hypothalamic
ictus
imo
impanel
inasmuch
instantiate
ipecac
jot
jund
kazoo
kerat##
klaas
kodo
kowtow
kraal
kurta
lande
lapwing
lariat
latifolia
laxity
lento
linchpin
litster
loge
longshore
lumbermen
lumpkin
lysergic
machi
malacia
masticate
mellifera
merck
mesial
metroplex
middlemen
mindorensis
mongo
monist
morass
morsel
mortise
muhtar
mumbo
nabob
natick
nazir
niner
nishi
nitrite
nitroso
norie
nub
numismatics
nunc
occlusal
olivet
orgasmic
oribe
overflew
oxalo##
pallidum
papillon
paternoster
pes
pharos
pippin
pluribus
polyptych
poore
portobello
prodromus
promisor
pugnacious
puisne
puncheon
pupate
puro
purusha
putter
quanta
rattan
relaxant
rie
riprap
rudge
saiga
saker
seinen
sesterce
shama
shastra
sociability
speke
speleo##
splendored
squeamish
stellation
stellenbosch
stipple
streptococcal
summative
superintend
sura
swum
tangency
tapir
tarso##
tartrate
tas
tenge
thiazole
tinnitus
tittle
topiary
tracheae
trailways
transceiver
tremella
tromp
tropy
trundle
tuberosa
turlough
tyrannosaurine
underhook
valvular
verdigris
verso
vicissitude
vihara
vivacity
warranto
westie
widget
wille
yelm
##amivir
##gene
##mate
abatis
abstruse
acanthus
acetaldehyde
ahn
aller
alsatian
arabidopsis
arctica
arseno##
aspersion
auro##
ballade
bedel
beheld
bergh
beriberi
bhangra
boni
bouton
bracteate
calcine
campylobacter
canaria
candelabra
cantankerous
capriccio
carucate
cattlemen
cayuse
celesta
cento
cervus
chardonnay
chemokine
chickenpox
chiffon
chula
circumvention
claymation
clepsydra
columbo
contrabassoon
convulse
coronoid
crone
crummy
cuneate
curtsey
cuticular
cybernetics
dacha
debenture
deen
delphic
dempster
diabase
dilettante
dinmont
disembarkation
dit
dita
dolour
dormition
doucet
dowel
doyen
dram
drogue
efflux
emulsify
eroto##
escrow
estradiol
eugenic
exterminator
fasces
ferric
fibrillation
fictive
filaria
filius
flabbergast
flapjack
fluorene
frit
fumigation
galt
gars
geebung
genet
germinal
gier
glitz
haberdasher
habitant
hant
hashemite
hebe
[...]
